#include "magic_wand_model_data.h"

// We need to keep the data array aligned on some architectures.
#ifdef __has_attribute
#define HAVE_ATTRIBUTE(x) __has_attribute(x)
#else
#define HAVE_ATTRIBUTE(x) 0
#endif
#if HAVE_ATTRIBUTE(aligned) || (defined(__GNUC__) && !defined(__clang__))
#define DATA_ALIGN_ATTRIBUTE __attribute__((aligned(4)))
#else
#define DATA_ALIGN_ATTRIBUTE
#endif

const unsigned char g_magic_wand_model_data[] DATA_ALIGN_ATTRIBUTE = {
  // Paste the data of the char array in `src/model.cc` here
  0x1c, 0x00, 0x00, 0x00, 0x54, 0x46, 0x4c, 0x33, 0x14, 0x00, 0x20, 0x00,
  0x04, 0x00, 0x08, 0x00, 0x0c, 0x00, 0x10, 0x00, 0x14, 0x00, 0x00, 0x00,
  0x18, 0x00, 0x1c, 0x00, 0x14, 0x00, 0x00, 0x00, 0x03, 0x00, 0x00, 0x00,
  0x18, 0x00, 0x00, 0x00, 0x2c, 0x00, 0x00, 0x00, 0xd8, 0x00, 0x00, 0x00,
  0x2c, 0x00, 0x00, 0x00, 0x80, 0x00, 0x00, 0x00, 0x78, 0x00, 0x00, 0x00,
  0x05, 0x00, 0x00, 0x00, 0x28, 0x07, 0x00, 0x00, 0x44, 0x06, 0x00, 0x00,
  0xbc, 0x03, 0x00, 0x00, 0xf8, 0x02, 0x00, 0x00, 0xac, 0x01, 0x00, 0x00,
  0x01, 0x00, 0x00, 0x00, 0xd0, 0x00, 0x00, 0x00, 0x14, 0x00, 0x00, 0x00,
  0x98, 0x32, 0x00, 0x00, 0x94, 0x32, 0x00, 0x00, 0x8c, 0x31, 0x00, 0x00,
  0xd8, 0x30, 0x00, 0x00, 0x30, 0x30, 0x00, 0x00, 0xbc, 0x2f, 0x00, 0x00,
  0x50, 0x2f, 0x00, 0x00, 0x00, 0x13, 0x00, 0x00, 0xec, 0x11, 0x00, 0x00,
  0x10, 0x10, 0x00, 0x00, 0xb4, 0x07, 0x00, 0x00, 0x6c, 0x32, 0x00, 0x00,
  0x68, 0x32, 0x00, 0x00, 0x64, 0x32, 0x00, 0x00, 0x60, 0x32, 0x00, 0x00,
  0x5c, 0x32, 0x00, 0x00, 0x58, 0x32, 0x00, 0x00, 0x54, 0x32, 0x00, 0x00,
  0x50, 0x32, 0x00, 0x00, 0x3c, 0x00, 0x00, 0x00, 0x00, 0x00, 0x00, 0x00,
  0x01, 0x00, 0x00, 0x00, 0x0c, 0x00, 0x00, 0x00, 0x08, 0x00, 0x0c, 0x00,
  0x04, 0x00, 0x08, 0x00, 0x08, 0x00, 0x00, 0x00, 0x08, 0x00, 0x00, 0x00,
  0x13, 0x00, 0x00, 0x00, 0x13, 0x00, 0x00, 0x00, 0x6d, 0x69, 0x6e, 0x5f,
  0x72, 0x75, 0x6e, 0x74, 0x69, 0x6d, 0x65, 0x5f, 0x76, 0x65, 0x72, 0x73,
  0x69, 0x6f, 0x6e, 0x00, 0xfa, 0xce, 0xff, 0xff, 0x04, 0x00, 0x00, 0x00,
  0x10, 0x00, 0x00, 0x00, 0x31, 0x2e, 0x35, 0x2e, 0x30, 0x00, 0x00, 0x00,
  0x00, 0x00, 0x00, 0x00, 0x00, 0x00, 0x00, 0x00, 0x0f, 0x00, 0x00, 0x00,
  0x4d, 0x4c, 0x49, 0x52, 0x20, 0x43, 0x6f, 0x6e, 0x76, 0x65, 0x72, 0x74,
  0x65, 0x64, 0x2e, 0x00, 0x00, 0x00, 0x0e, 0x00, 0x18, 0x00, 0x04, 0x00,
  0x08, 0x00, 0x0c, 0x00, 0x10, 0x00, 0x14, 0x00, 0x0e, 0x00, 0x00, 0x00,
  0x14, 0x00, 0x00, 0x00, 0x5c, 0x00, 0x00, 0x00, 0x60, 0x00, 0x00, 0x00,
  0x64, 0x00, 0x00, 0x00, 0x84, 0x00, 0x00, 0x00, 0x12, 0x00, 0x00, 0x00,
  0x58, 0x31, 0x00, 0x00, 0xe8, 0x30, 0x00, 0x00, 0x44, 0x30, 0x00, 0x00,
  0x9c, 0x2f, 0x00, 0x00, 0xf4, 0x2e, 0x00, 0x00, 0x94, 0x2e, 0x00, 0x00,
  0x2c, 0x2e, 0x00, 0x00, 0xd8, 0x11, 0x00, 0x00, 0xbc, 0x10, 0x00, 0x00,
  0xe0, 0x0e, 0x00, 0x00, 0x0c, 0x06, 0x00, 0x00, 0x28, 0x05, 0x00, 0x00,
  0xe8, 0x03, 0x00, 0x00, 0x3c, 0x03, 0x00, 0x00, 0x98, 0x02, 0x00, 0x00,
  0xd4, 0x01, 0x00, 0x00, 0x10, 0x01, 0x00, 0x00, 0x84, 0x00, 0x00, 0x00,
  0x01, 0x00, 0x00, 0x00, 0x00, 0x00, 0x00, 0x00, 0x01, 0x00, 0x00, 0x00,
  0x11, 0x00, 0x00, 0x00, 0x08, 0x00, 0x00, 0x00, 0x74, 0x05, 0x00, 0x00,
  0x94, 0x04, 0x00, 0x00, 0x78, 0x03, 0x00, 0x00, 0xbc, 0x02, 0x00, 0x00,
  0x30, 0x02, 0x00, 0x00, 0x50, 0x01, 0x00, 0x00, 0xa8, 0x00, 0x00, 0x00,
  0x10, 0x00, 0x00, 0x00, 0x04, 0x00, 0x00, 0x00, 0x6d, 0x61, 0x69, 0x6e,
  0x00, 0x00, 0x00, 0x00, 0x7a, 0xff, 0xff, 0xff, 0x00, 0x00, 0x00, 0x09,
  0x04, 0x00, 0x00, 0x00, 0x1c, 0x00, 0x00, 0x00, 0x10, 0x00, 0x00, 0x00,
  0x04, 0x00, 0x00, 0x00, 0xf6, 0xcf, 0xff, 0xff, 0x00, 0x00, 0x80, 0x3f,
  0x01, 0x00, 0x00, 0x00, 0x11, 0x00, 0x00, 0x00, 0x01, 0x00, 0x00, 0x00,
  0x10, 0x00, 0x00, 0x00, 0xa0, 0xfa, 0xff, 0xff, 0x19, 0x00, 0x00, 0x00,
  0x00, 0x00, 0x00, 0x19, 0x01, 0x00, 0x00, 0x00, 0x84, 0xcf, 0xff, 0xff,
  0x14, 0x00, 0x00, 0x00, 0x12, 0x00, 0x00, 0x00, 0x18, 0x00, 0x00, 0x00,
  0x30, 0x00, 0x00, 0x00, 0x20, 0x00, 0x00, 0x00, 0x02, 0x00, 0x00, 0x00,
  0x01, 0x00, 0x00, 0x00, 0x03, 0x00, 0x00, 0x00, 0x08, 0x00, 0x00, 0x00,
  0x49, 0x64, 0x65, 0x6e, 0x74, 0x69, 0x74, 0x79, 0x00, 0x00, 0x00, 0x00,
  0x02, 0x00, 0x00, 0x00, 0xff, 0xff, 0xff, 0xff, 0x03, 0x00, 0x00, 0x00,
  0x68, 0xd0, 0xff, 0xff, 0x00, 0x00, 0x0e, 0x00, 0x18, 0x00, 0x08, 0x00,
  0x0c, 0x00, 0x10, 0x00, 0x07, 0x00, 0x14, 0x00, 0x0e, 0x00, 0x00, 0x00,
  0x00, 0x00, 0x00, 0x08, 0x03, 0x00, 0x00, 0x00, 0x18, 0x00, 0x00, 0x00,
  0x0c, 0x00, 0x00, 0x00, 0x04, 0x00, 0x00, 0x00, 0x84, 0xcf, 0xff, 0xff,
  0x01, 0x00, 0x00, 0x00, 0x10, 0x00, 0x00, 0x00, 0x03, 0x00, 0x00, 0x00,
  0x0f, 0x00, 0x00, 0x00, 0x07, 0x00, 0x00, 0x00, 0x04, 0x00, 0x00, 0x00,
  0x0c, 0xd0, 0xff, 0xff, 0x14, 0x00, 0x00, 0x00, 0x11, 0x00, 0x00, 0x00,
  0x18, 0x00, 0x00, 0x00, 0x5c, 0x00, 0x00, 0x00, 0x4c, 0x00, 0x00, 0x00,
  0x02, 0x00, 0x00, 0x00, 0x01, 0x00, 0x00, 0x00, 0x03, 0x00, 0x00, 0x00,
  0x34, 0x00, 0x00, 0x00, 0x73, 0x65, 0x71, 0x75, 0x65, 0x6e, 0x74, 0x69,
  0x61, 0x6c, 0x2f, 0x64, 0x65, 0x6e, 0x73, 0x65, 0x5f, 0x31, 0x2f, 0x4d,
  0x61, 0x74, 0x4d, 0x75, 0x6c, 0x3b, 0x73, 0x65, 0x71, 0x75, 0x65, 0x6e,
  0x74, 0x69, 0x61, 0x6c, 0x2f, 0x64, 0x65, 0x6e, 0x73, 0x65, 0x5f, 0x31,
  0x2f, 0x42, 0x69, 0x61, 0x73, 0x41, 0x64, 0x64, 0x00, 0x00, 0x00, 0x00,
  0x02, 0x00, 0x00, 0x00, 0xff, 0xff, 0xff, 0xff, 0x03, 0x00, 0x00, 0x00,
  0x0c, 0xd0, 0xff, 0xff, 0xda, 0xfc, 0xff, 0xff, 0x00, 0x00, 0x00, 0x08,
  0x03, 0x00, 0x00, 0x00, 0x24, 0x00, 0x00, 0x00, 0x18, 0x00, 0x00, 0x00,
  0x0c, 0x00, 0x00, 0x00, 0x00, 0x00, 0x06, 0x00, 0x08, 0x00, 0x07, 0x00,
  0x06, 0x00, 0x00, 0x00, 0x00, 0x00, 0x00, 0x01, 0x01, 0x00, 0x00, 0x00,
  0x0f, 0x00, 0x00, 0x00, 0x03, 0x00, 0x00, 0x00, 0x0e, 0x00, 0x00, 0x00,
  0x06, 0x00, 0x00, 0x00, 0x03, 0x00, 0x00, 0x00, 0xe8, 0xfb, 0xff, 0xff,
  0x09, 0x00, 0x00, 0x00, 0x00, 0x00, 0x00, 0x09, 0x01, 0x00, 0x00, 0x00,
  0xcc, 0xd0, 0xff, 0xff, 0x14, 0x00, 0x00, 0x00, 0x10, 0x00, 0x00, 0x00,
  0x18, 0x00, 0x00, 0x00, 0x6c, 0x00, 0x00, 0x00, 0x5c, 0x00, 0x00, 0x00,
  0x02, 0x00, 0x00, 0x00, 0x01, 0x00, 0x00, 0x00, 0x10, 0x00, 0x00, 0x00,
  0x46, 0x00, 0x00, 0x00, 0x73, 0x65, 0x71, 0x75, 0x65, 0x6e, 0x74, 0x69,
  0x61, 0x6c, 0x2f, 0x64, 0x65, 0x6e, 0x73, 0x65, 0x2f, 0x4d, 0x61, 0x74,
  0x4d, 0x75, 0x6c, 0x3b, 0x73, 0x65, 0x71, 0x75, 0x65, 0x6e, 0x74, 0x69,
  0x61, 0x6c, 0x2f, 0x64, 0x65, 0x6e, 0x73, 0x65, 0x2f, 0x52, 0x65, 0x6c,
  0x75, 0x3b, 0x73, 0x65, 0x71, 0x75, 0x65, 0x6e, 0x74, 0x69, 0x61, 0x6c,
  0x2f, 0x64, 0x65, 0x6e, 0x73, 0x65, 0x2f, 0x42, 0x69, 0x61, 0x73, 0x41,
  0x64, 0x64, 0x00, 0x00, 0x02, 0x00, 0x00, 0x00, 0xff, 0xff, 0xff, 0xff,
  0x10, 0x00, 0x00, 0x00, 0xec, 0xd1, 0xff, 0xff, 0x00, 0x00, 0x0a, 0x00,
  0x10, 0x00, 0x04, 0x00, 0x08, 0x00, 0x0c, 0x00, 0x0a, 0x00, 0x00, 0x00,
  0x02, 0x00, 0x00, 0x00, 0x10, 0x00, 0x00, 0x00, 0x04, 0x00, 0x00, 0x00,
  0x01, 0x00, 0x00, 0x00, 0x0e, 0x00, 0x00, 0x00, 0x02, 0x00, 0x00, 0x00,
  0x0d, 0x00, 0x00, 0x00, 0x05, 0x00, 0x00, 0x00, 0xa8, 0xfc, 0xff, 0xff,
  0x16, 0x00, 0x00, 0x00, 0x00, 0x00, 0x00, 0x16, 0x01, 0x00, 0x00, 0x00,
  0x8c, 0xd1, 0xff, 0xff, 0x14, 0x00, 0x00, 0x00, 0x0f, 0x00, 0x00, 0x00,
  0x18, 0x00, 0x00, 0x00, 0x40, 0x00, 0x00, 0x00, 0x30, 0x00, 0x00, 0x00,
  0x02, 0x00, 0x00, 0x00, 0x01, 0x00, 0x00, 0x00, 0x70, 0x00, 0x00, 0x00,
  0x1a, 0x00, 0x00, 0x00, 0x73, 0x65, 0x71, 0x75, 0x65, 0x6e, 0x74, 0x69,
  0x61, 0x6c, 0x2f, 0x66, 0x6c, 0x61, 0x74, 0x74, 0x65, 0x6e, 0x2f, 0x52,
  0x65, 0x73, 0x68, 0x61, 0x70, 0x65, 0x00, 0x00, 0x02, 0x00, 0x00, 0x00,
  0xff, 0xff, 0xff, 0xff, 0x70, 0x00, 0x00, 0x00, 0x70, 0xd1, 0xff, 0xff,
  0x3e, 0xfe, 0xff, 0xff, 0x00, 0x00, 0x00, 0x05, 0x01, 0x00, 0x00, 0x00,
  0x38, 0x00, 0x00, 0x00, 0x2c, 0x00, 0x00, 0x00, 0x14, 0x00, 0x00, 0x00,
  0x00, 0x00, 0x0e, 0x00, 0x14, 0x00, 0x00, 0x00, 0x10, 0x00, 0x0c, 0x00,
  0x08, 0x00, 0x04, 0x00, 0x0e, 0x00, 0x00, 0x00, 0x03, 0x00, 0x00, 0x00,
  0x01, 0x00, 0x00, 0x00, 0x03, 0x00, 0x00, 0x00, 0x01, 0x00, 0x00, 0x00,
  0x01, 0x00, 0x00, 0x00, 0x0d, 0x00, 0x00, 0x00, 0x01, 0x00, 0x00, 0x00,
  0x0c, 0x00, 0x00, 0x00, 0x2c, 0xd2, 0xff, 0xff, 0x14, 0x00, 0x00, 0x00,
  0x0e, 0x00, 0x00, 0x00, 0x20, 0x00, 0x00, 0x00, 0x58, 0x00, 0x00, 0x00,
  0x40, 0x00, 0x00, 0x00, 0x04, 0x00, 0x00, 0x00, 0x01, 0x00, 0x00, 0x00,
  0x07, 0x00, 0x00, 0x00, 0x01, 0x00, 0x00, 0x00, 0x10, 0x00, 0x00, 0x00,
  0x22, 0x00, 0x00, 0x00, 0x73, 0x65, 0x71, 0x75, 0x65, 0x6e, 0x74, 0x69,
  0x61, 0x6c, 0x2f, 0x6d, 0x61, 0x78, 0x5f, 0x70, 0x6f, 0x6f, 0x6c, 0x69,
  0x6e, 0x67, 0x32, 0x64, 0x5f, 0x31, 0x2f, 0x4d, 0x61, 0x78, 0x50, 0x6f,
  0x6f, 0x6c, 0x00, 0x00, 0x04, 0x00, 0x00, 0x00, 0xff, 0xff, 0xff, 0xff,
  0x07, 0x00, 0x00, 0x00, 0x01, 0x00, 0x00, 0x00, 0x10, 0x00, 0x00, 0x00,
  0x28, 0xd2, 0xff, 0xff, 0x1a, 0xfe, 0xff, 0xff, 0x00, 0x00, 0x00, 0x01,
  0x24, 0x00, 0x00, 0x00, 0x18, 0x00, 0x00, 0x00, 0x04, 0x00, 0x00, 0x00,
  0x0c, 0xfe, 0xff, 0xff, 0x01, 0x00, 0x00, 0x00, 0x01, 0x00, 0x00, 0x00,
  0x00, 0x00, 0x00, 0x01, 0x01, 0x00, 0x00, 0x00, 0x0c, 0x00, 0x00, 0x00,
  0x03, 0x00, 0x00, 0x00, 0x0b, 0x00, 0x00, 0x00, 0x09, 0x00, 0x00, 0x00,
  0x02, 0x00, 0x00, 0x00, 0xd4, 0xd2, 0xff, 0xff, 0x14, 0x00, 0x00, 0x00,
  0x0d, 0x00, 0x00, 0x00, 0x20, 0x00, 0x00, 0x00, 0xb8, 0x00, 0x00, 0x00,
  0xa0, 0x00, 0x00, 0x00, 0x04, 0x00, 0x00, 0x00, 0x01, 0x00, 0x00, 0x00,
  0x15, 0x00, 0x00, 0x00, 0x01, 0x00, 0x00, 0x00, 0x10, 0x00, 0x00, 0x00,
  0x83, 0x00, 0x00, 0x00, 0x73, 0x65, 0x71, 0x75, 0x65, 0x6e, 0x74, 0x69,
  0x61, 0x6c, 0x2f, 0x63, 0x6f, 0x6e, 0x76, 0x32, 0x64, 0x5f, 0x31, 0x2f,
  0x52, 0x65, 0x6c, 0x75, 0x3b, 0x73, 0x65, 0x71, 0x75, 0x65, 0x6e, 0x74,
  0x69, 0x61, 0x6c, 0x2f, 0x63, 0x6f, 0x6e, 0x76, 0x32, 0x64, 0x5f, 0x31,
  0x2f, 0x42, 0x69, 0x61, 0x73, 0x41, 0x64, 0x64, 0x3b, 0x73, 0x65, 0x71,
  0x75, 0x65, 0x6e, 0x74, 0x69, 0x61, 0x6c, 0x2f, 0x63, 0x6f, 0x6e, 0x76,
  0x32, 0x64, 0x5f, 0x31, 0x2f, 0x43, 0x6f, 0x6e, 0x76, 0x32, 0x44, 0x3b,
  0x73, 0x65, 0x71, 0x75, 0x65, 0x6e, 0x74, 0x69, 0x61, 0x6c, 0x2f, 0x63,
  0x6f, 0x6e, 0x76, 0x32, 0x64, 0x5f, 0x31, 0x2f, 0x42, 0x69, 0x61, 0x73,
  0x41, 0x64, 0x64, 0x2f, 0x52, 0x65, 0x61, 0x64, 0x56, 0x61, 0x72, 0x69,
  0x61, 0x62, 0x6c, 0x65, 0x4f, 0x70, 0x2f, 0x72, 0x65, 0x73, 0x6f, 0x75,
  0x72, 0x63, 0x65, 0x00, 0x04, 0x00, 0x00, 0x00, 0xff, 0xff, 0xff, 0xff,
  0x15, 0x00, 0x00, 0x00, 0x01, 0x00, 0x00, 0x00, 0x10, 0x00, 0x00, 0x00,
  0x40, 0xd4, 0xff, 0xff, 0x00, 0x00, 0x0e, 0x00, 0x1a, 0x00, 0x08, 0x00,
  0x0c, 0x00, 0x10, 0x00, 0x07, 0x00, 0x14, 0x00, 0x0e, 0x00, 0x00, 0x00,
  0x00, 0x00, 0x00, 0x05, 0x01, 0x00, 0x00, 0x00, 0x3c, 0x00, 0x00, 0x00,
  0x30, 0x00, 0x00, 0x00, 0x14, 0x00, 0x00, 0x00, 0x00, 0x00, 0x0e, 0x00,
  0x18, 0x00, 0x17, 0x00, 0x10, 0x00, 0x0c, 0x00, 0x08, 0x00, 0x04, 0x00,
  0x0e, 0x00, 0x00, 0x00, 0x03, 0x00, 0x00, 0x00, 0x03, 0x00, 0x00, 0x00,
  0x03, 0x00, 0x00, 0x00, 0x03, 0x00, 0x00, 0x00, 0x00, 0x00, 0x00, 0x01,
  0x01, 0x00, 0x00, 0x00, 0x0b, 0x00, 0x00, 0x00, 0x01, 0x00, 0x00, 0x00,
  0x0a, 0x00, 0x00, 0x00, 0x2c, 0xff, 0xff, 0xff, 0x11, 0x00, 0x00, 0x00,
  0x00, 0x00, 0x00, 0x11, 0x01, 0x00, 0x00, 0x00, 0x10, 0xd4, 0xff, 0xff,
  0x14, 0x00, 0x00, 0x00, 0x0c, 0x00, 0x00, 0x00, 0x20, 0x00, 0x00, 0x00,
  0x58, 0x00, 0x00, 0x00, 0x40, 0x00, 0x00, 0x00, 0x04, 0x00, 0x00, 0x00,
  0x01, 0x00, 0x00, 0x00, 0x15, 0x00, 0x00, 0x00, 0x01, 0x00, 0x00, 0x00,
  0x08, 0x00, 0x00, 0x00, 0x20, 0x00, 0x00, 0x00, 0x73, 0x65, 0x71, 0x75,
  0x65, 0x6e, 0x74, 0x69, 0x61, 0x6c, 0x2f, 0x6d, 0x61, 0x78, 0x5f, 0x70,
  0x6f, 0x6f, 0x6c, 0x69, 0x6e, 0x67, 0x32, 0x64, 0x2f, 0x4d, 0x61, 0x78,
  0x50, 0x6f, 0x6f, 0x6c, 0x00, 0x00, 0x00, 0x00, 0x04, 0x00, 0x00, 0x00,
  0xff, 0xff, 0xff, 0xff, 0x15, 0x00, 0x00, 0x00, 0x01, 0x00, 0x00, 0x00,
  0x08, 0x00, 0x00, 0x00, 0x1c, 0xd5, 0xff, 0xff, 0x00, 0x00, 0x0e, 0x00,
  0x14, 0x00, 0x00, 0x00, 0x08, 0x00, 0x0c, 0x00, 0x07, 0x00, 0x10, 0x00,
  0x0e, 0x00, 0x00, 0x00, 0x00, 0x00, 0x00, 0x01, 0x30, 0x00, 0x00, 0x00,
  0x24, 0x00, 0x00, 0x00, 0x10, 0x00, 0x00, 0x00, 0x0c, 0x00, 0x10, 0x00,
  0x00, 0x00, 0x04, 0x00, 0x08, 0x00, 0x0f, 0x00, 0x0c, 0x00, 0x00, 0x00,
  0x01, 0x00, 0x00, 0x00, 0x01, 0x00, 0x00, 0x00, 0x00, 0x00, 0x00, 0x01,
  0x01, 0x00, 0x00, 0x00, 0x0a, 0x00, 0x00, 0x00, 0x03, 0x00, 0x00, 0x00,
  0x00, 0x00, 0x00, 0x00, 0x08, 0x00, 0x00, 0x00, 0x01, 0x00, 0x00, 0x00,
  0x0c, 0x00, 0x10, 0x00, 0x0b, 0x00, 0x00, 0x00, 0x0c, 0x00, 0x04, 0x00,
  0x0c, 0x00, 0x00, 0x00, 0x03, 0x00, 0x00, 0x00, 0x00, 0x00, 0x00, 0x03,
  0x01, 0x00, 0x00, 0x00, 0xf0, 0xd4, 0xff, 0xff, 0x14, 0x00, 0x00, 0x00,
  0x0b, 0x00, 0x00, 0x00, 0x20, 0x00, 0x00, 0x00, 0xb0, 0x00, 0x00, 0x00,
  0x98, 0x00, 0x00, 0x00, 0x04, 0x00, 0x00, 0x00, 0x01, 0x00, 0x00, 0x00,
  0x40, 0x00, 0x00, 0x00, 0x03, 0x00, 0x00, 0x00, 0x08, 0x00, 0x00, 0x00,
  0x7b, 0x00, 0x00, 0x00, 0x73, 0x65, 0x71, 0x75, 0x65, 0x6e, 0x74, 0x69,
  0x61, 0x6c, 0x2f, 0x63, 0x6f, 0x6e, 0x76, 0x32, 0x64, 0x2f, 0x52, 0x65,
  0x6c, 0x75, 0x3b, 0x73, 0x65, 0x71, 0x75, 0x65, 0x6e, 0x74, 0x69, 0x61,
  0x6c, 0x2f, 0x63, 0x6f, 0x6e, 0x76, 0x32, 0x64, 0x2f, 0x42, 0x69, 0x61,
  0x73, 0x41, 0x64, 0x64, 0x3b, 0x73, 0x65, 0x71, 0x75, 0x65, 0x6e, 0x74,
  0x69, 0x61, 0x6c, 0x2f, 0x63, 0x6f, 0x6e, 0x76, 0x32, 0x64, 0x2f, 0x43,
  0x6f, 0x6e, 0x76, 0x32, 0x44, 0x3b, 0x73, 0x65, 0x71, 0x75, 0x65, 0x6e,
  0x74, 0x69, 0x61, 0x6c, 0x2f, 0x63, 0x6f, 0x6e, 0x76, 0x32, 0x64, 0x2f,
  0x42, 0x69, 0x61, 0x73, 0x41, 0x64, 0x64, 0x2f, 0x52, 0x65, 0x61, 0x64,
  0x56, 0x61, 0x72, 0x69, 0x61, 0x62, 0x6c, 0x65, 0x4f, 0x70, 0x2f, 0x72,
  0x65, 0x73, 0x6f, 0x75, 0x72, 0x63, 0x65, 0x00, 0x04, 0x00, 0x00, 0x00,
  0xff, 0xff, 0xff, 0xff, 0x40, 0x00, 0x00, 0x00, 0x03, 0x00, 0x00, 0x00,
  0x08, 0x00, 0x00, 0x00, 0x44, 0xd5, 0xff, 0xff, 0x4e, 0xd6, 0xff, 0xff,
  0x04, 0x00, 0x00, 0x00, 0x00, 0x08, 0x00, 0x00, 0x71, 0x21, 0x53, 0x3d,
  0x9a, 0x82, 0xbe, 0x3d, 0x5d, 0x7a, 0x4a, 0xbd, 0x65, 0x75, 0x7e, 0xbe,
  0xd2, 0x8b, 0xcd, 0xbc, 0x32, 0xea, 0x9c, 0xbe, 0x70, 0x47, 0x16, 0xbb,
  0x1e, 0x8c, 0x37, 0xbe, 0x48, 0x70, 0x7b, 0x3e, 0x84, 0x51, 0x5b, 0x3d,
  0x39, 0x7e, 0x71, 0xbd, 0x68, 0x3f, 0x31, 0xbe, 0x8a, 0xe7, 0xa0, 0x3d,
  0x89, 0x7a, 0xc2, 0xbe, 0x2d, 0x63, 0xda, 0x3d, 0xfb, 0xad, 0x42, 0x3f,
  0xb4, 0x16, 0x8d, 0x3d, 0x7a, 0xd5, 0x28, 0x3e, 0x5d, 0x5c, 0xa3, 0xbd,
  0xcb, 0x82, 0x8d, 0xbe, 0x40, 0x85, 0xb1, 0x3c, 0x24, 0xb3, 0xbc, 0xbe,
  0x70, 0x48, 0x17, 0xbd, 0x48, 0x26, 0x5a, 0x3d, 0xe7, 0xc6, 0x48, 0x3e,
  0xf3, 0xb3, 0x0e, 0x3e, 0x77, 0x78, 0x45, 0xbd, 0xb4, 0xb2, 0x43, 0xbe,
  0x38, 0xfa, 0x28, 0x3e, 0xa0, 0xdc, 0x7d, 0xbe, 0x7e, 0x85, 0x3b, 0xbd,
  0x93, 0x37, 0x4c, 0x3e, 0x35, 0xfe, 0x9d, 0xbe, 0x03, 0x70, 0x3d, 0xbe,
  0x7b, 0xbd, 0x85, 0x3e, 0x39, 0x1c, 0x1f, 0xbe, 0x9e, 0xd2, 0x95, 0xbe,
  0xf0, 0x09, 0x78, 0xbd, 0xa2, 0xea, 0x95, 0xbd, 0x10, 0x92, 0x1f, 0xbe,
  0xe2, 0x59, 0xdb, 0xbd, 0x96, 0xa1, 0xd1, 0x3d, 0xc7, 0xb1, 0x41, 0x3d,
  0x99, 0xdf, 0x0f, 0xbe, 0x6f, 0xc6, 0x9d, 0xbc, 0x7e, 0xdb, 0xb5, 0x3c,
  0xcb, 0xfd, 0x6e, 0xbe, 0xff, 0xf1, 0x6a, 0xbe, 0x50, 0x73, 0x31, 0x3f,
  0x9c, 0x8d, 0x5d, 0x3e, 0xd2, 0x30, 0x72, 0xbe, 0x78, 0x93, 0x51, 0x3b,
  0xea, 0x0a, 0x32, 0x3e, 0x1d, 0x58, 0x7c, 0x3c, 0x9d, 0xd1, 0x0c, 0xbe,
  0x69, 0x8e, 0xb5, 0x3c, 0x60, 0x3f, 0xa7, 0xbd, 0x62, 0x6d, 0x20, 0x3e,
  0xb9, 0xbd, 0xe4, 0xbe, 0xd3, 0x69, 0x25, 0x3e, 0xe7, 0x15, 0xf8, 0x3d,
  0x8d, 0xaa, 0xf8, 0xbd, 0xe6, 0xd5, 0x18, 0xbe, 0x6c, 0x3f, 0x56, 0xbd,
  0x48, 0x8c, 0x86, 0x3e, 0xeb, 0x7f, 0x52, 0x3e, 0x57, 0xd9, 0x80, 0xbc,
  0xa4, 0x5e, 0xf8, 0x3d, 0x5b, 0x16, 0x52, 0xbd, 0x42, 0xf4, 0xed, 0xbe,
  0x95, 0x57, 0xb4, 0x3e, 0x68, 0xc9, 0x52, 0x3e, 0x0e, 0x4d, 0x82, 0x3e,
  0xdc, 0x21, 0xb5, 0x3d, 0x1c, 0x88, 0x02, 0x3e, 0x9f, 0x39, 0xaa, 0xbe,
  0x4d, 0x2a, 0xaf, 0xbe, 0xe3, 0xd1, 0xd9, 0xbe, 0xad, 0xde, 0x01, 0xbe,
  0xfc, 0x30, 0x58, 0xbe, 0xcd, 0xac, 0x1e, 0x3e, 0x92, 0xad, 0xed, 0x3c,
  0x09, 0x1e, 0x04, 0x3e, 0x80, 0xbc, 0x39, 0xbe, 0x50, 0x5b, 0x90, 0xbd,
  0x2e, 0x7d, 0x00, 0xbe, 0x41, 0x20, 0xd1, 0xbe, 0x04, 0xff, 0x1d, 0xbd,
  0x59, 0xc6, 0x68, 0xbf, 0x00, 0x1c, 0x42, 0xbf, 0x58, 0x03, 0xc6, 0xbe,
  0x9c, 0xba, 0x35, 0xbd, 0xdb, 0x2e, 0xb5, 0x3d, 0x28, 0x24, 0x35, 0x3e,
  0x0b, 0x50, 0x86, 0xbe, 0xcf, 0xa5, 0x86, 0x3e, 0x29, 0xdc, 0x40, 0xbc,
  0xe7, 0xb1, 0x3b, 0xbd, 0x13, 0xfa, 0xab, 0x3d, 0xd2, 0xe3, 0x2c, 0xbe,
  0xee, 0x63, 0xcf, 0xbe, 0x11, 0x8f, 0x68, 0x3d, 0x82, 0x91, 0x84, 0xbd,
  0x50, 0x0a, 0xbf, 0x3d, 0x2f, 0x87, 0x41, 0x3d, 0x71, 0x22, 0x1f, 0x3e,
  0x22, 0x74, 0xfa, 0xbd, 0x57, 0x36, 0x10, 0xbd, 0x19, 0x46, 0xef, 0xbe,
  0x2d, 0x9b, 0xb8, 0xbc, 0x7a, 0x72, 0x23, 0xbe, 0x8d, 0x73, 0x63, 0xbc,
  0xa4, 0x00, 0xf0, 0xbd, 0x13, 0xc7, 0x17, 0x3e, 0x7a, 0x7f, 0x11, 0x3e,
  0x16, 0xf6, 0x96, 0xbc, 0x83, 0x1d, 0xdd, 0xbe, 0xed, 0x92, 0xe9, 0x3d,
  0x43, 0x3b, 0x9b, 0xbd, 0x43, 0xda, 0x3d, 0xbd, 0x83, 0x71, 0xc4, 0xbb,
  0x8b, 0x80, 0xaa, 0x3d, 0x4a, 0x12, 0x39, 0x3e, 0xa8, 0xa1, 0x9a, 0xbd,
  0x42, 0x3b, 0x06, 0xbf, 0xa8, 0x0f, 0x4a, 0x3c, 0xcf, 0x45, 0x47, 0xbe,
  0xbb, 0x7a, 0x97, 0x3d, 0x28, 0x95, 0xf2, 0xbe, 0x3d, 0xb5, 0x73, 0xbe,
  0xdd, 0xe1, 0x4b, 0xbc, 0x33, 0xb1, 0xe4, 0xbd, 0x6e, 0x76, 0x80, 0xbe,
  0x4c, 0xd2, 0x94, 0xbc, 0x80, 0x4f, 0xb5, 0xbd, 0x4e, 0x4e, 0x99, 0xbe,
  0x5e, 0xd0, 0xc4, 0xbe, 0x9e, 0x22, 0x48, 0xbe, 0xe2, 0xc4, 0xb0, 0xbd,
  0xc5, 0x44, 0xdc, 0xbd, 0xa4, 0xa4, 0x53, 0xbe, 0x21, 0x28, 0x95, 0xbd,
  0x8f, 0x40, 0x27, 0xbe, 0x10, 0x02, 0xb5, 0xbe, 0x46, 0x22, 0x8b, 0xbe,
  0x0e, 0x11, 0x4d, 0xbe, 0x4d, 0x88, 0x21, 0xbd, 0xd3, 0x6e, 0x92, 0xbd,
  0xe5, 0x87, 0x4b, 0x3e, 0x11, 0xd6, 0xc1, 0x3c, 0x7d, 0x0f, 0xe3, 0xbb,
  0x41, 0xaf, 0x86, 0x3e, 0xd9, 0xdd, 0x99, 0x3e, 0xf9, 0x80, 0x7c, 0x3e,
  0xdf, 0xe8, 0x37, 0x3d, 0xbb, 0xe5, 0x47, 0x3e, 0x80, 0x5a, 0x68, 0x3d,
  0x76, 0xf6, 0x84, 0x3c, 0xf8, 0xce, 0xca, 0x3d, 0x9d, 0xc2, 0xe2, 0x3e,
  0x3d, 0x74, 0x17, 0xbd, 0x5e, 0x31, 0x30, 0xbe, 0xba, 0x7b, 0x68, 0x3d,
  0x1e, 0xb5, 0x71, 0xbe, 0xc8, 0x1f, 0x10, 0x3e, 0x47, 0x51, 0x72, 0x3d,
  0xaa, 0x0a, 0x19, 0xbe, 0x84, 0xb7, 0xc8, 0x3c, 0x85, 0xf7, 0x96, 0xbe,
  0xb7, 0xf6, 0x57, 0xbe, 0xaa, 0x94, 0x2c, 0xbd, 0x7f, 0xe0, 0x73, 0xbe,
  0x05, 0x45, 0xaa, 0xbd, 0xeb, 0xc6, 0x01, 0x3e, 0x4f, 0x3c, 0xdc, 0xbd,
  0x44, 0x24, 0x93, 0xbd, 0x32, 0xe4, 0x9e, 0xbe, 0x53, 0x8f, 0x85, 0xbe,
  0x29, 0x26, 0x31, 0xbe, 0x0f, 0x34, 0x19, 0xbe, 0x90, 0x78, 0x86, 0x3e,
  0x43, 0x37, 0x6b, 0xbd, 0xf0, 0x1d, 0x0b, 0x3d, 0x92, 0x48, 0x84, 0x3c,
  0x1f, 0x5d, 0x11, 0xbd, 0x2d, 0x2b, 0x93, 0xbc, 0xd6, 0xd3, 0xcf, 0xbd,
  0xe8, 0x2e, 0xb2, 0xbe, 0x60, 0x19, 0x27, 0x3d, 0x63, 0x3c, 0xab, 0xbc,
  0x3d, 0x07, 0x69, 0xbe, 0xc1, 0xcc, 0xb8, 0xbd, 0x44, 0x50, 0x3e, 0xbe,
  0x58, 0x7d, 0x55, 0xbe, 0xe1, 0x94, 0xe8, 0x3a, 0xe3, 0x99, 0xf6, 0x3d,
  0x6d, 0x22, 0x40, 0x3f, 0x4c, 0x3c, 0x4e, 0x3c, 0x04, 0x0b, 0x6c, 0x3d,
  0x72, 0xc5, 0x3b, 0x3e, 0x61, 0x35, 0x91, 0x3e, 0xbc, 0x84, 0x09, 0x3d,
  0x41, 0x2e, 0x3c, 0xbd, 0x99, 0x47, 0x98, 0x3d, 0x3a, 0x1c, 0x05, 0xbe,
  0x69, 0x57, 0x6f, 0xbd, 0x2f, 0x02, 0x67, 0xbc, 0x87, 0x62, 0x9e, 0x3d,
  0x80, 0x9b, 0xc1, 0xbd, 0xa6, 0xeb, 0x3f, 0xbd, 0x84, 0x9c, 0x6f, 0xbd,
  0x26, 0xaa, 0x12, 0x3d, 0x1d, 0xcf, 0x5a, 0xbe, 0x38, 0xe2, 0xb7, 0xbd,
  0x5a, 0x5d, 0x03, 0x3b, 0xe3, 0x28, 0x80, 0x3d, 0xd8, 0x37, 0x03, 0xbe,
  0x40, 0xf8, 0xd8, 0x3c, 0xcc, 0x9e, 0x75, 0xbc, 0x0d, 0xf6, 0xa5, 0xbd,
  0xe9, 0xae, 0x3e, 0xbd, 0xdc, 0x8a, 0x9e, 0xbd, 0x3c, 0xe8, 0xc5, 0xbb,
  0x58, 0x9e, 0xbc, 0x3c, 0x8c, 0x41, 0xc2, 0xbe, 0x8e, 0x03, 0x64, 0xbe,
  0x2f, 0xf1, 0x79, 0xbe, 0xe8, 0xe7, 0xe8, 0xbd, 0x12, 0x78, 0x9b, 0xbe,
  0x71, 0x6c, 0x69, 0xbd, 0x65, 0xb0, 0x43, 0xbe, 0x5e, 0xc3, 0x74, 0xbe,
  0xf2, 0x2e, 0x86, 0x3d, 0x58, 0x23, 0x53, 0x3d, 0x0b, 0x73, 0xc8, 0xbd,
  0x9a, 0xc9, 0x2f, 0xbe, 0xd2, 0x86, 0x85, 0x3e, 0x1f, 0x71, 0xe2, 0x3d,
  0x64, 0x64, 0xd3, 0xbe, 0xee, 0x6e, 0x91, 0xbd, 0x70, 0xa4, 0xaa, 0x3e,
  0xc9, 0x93, 0xa2, 0x3d, 0x43, 0x6c, 0x01, 0xbf, 0xfb, 0x7f, 0x2f, 0x3e,
  0x96, 0x9b, 0x7b, 0x3e, 0x9a, 0x97, 0x84, 0x3d, 0x0d, 0x87, 0xd2, 0xbd,
  0x75, 0x45, 0xa1, 0x3e, 0xd3, 0xe4, 0x68, 0xbd, 0xa9, 0x85, 0xf1, 0xbc,
  0x74, 0xb3, 0xca, 0xbe, 0xdc, 0x61, 0x41, 0x3d, 0x48, 0x3f, 0x2a, 0x3e,
  0x42, 0x8d, 0x03, 0xbe, 0x1d, 0x1e, 0xd9, 0xbd, 0x98, 0xa8, 0x30, 0x3e,
  0x44, 0xd1, 0x28, 0x3e, 0x94, 0xd5, 0x01, 0x3f, 0x35, 0x9b, 0x36, 0xbe,
  0x5a, 0xfe, 0x74, 0xbd, 0xea, 0x4d, 0xd4, 0x3c, 0x75, 0xed, 0xc3, 0x3c,
  0xdc, 0xc1, 0x03, 0xbe, 0x7b, 0x8f, 0x65, 0x3c, 0xc1, 0xf4, 0xa6, 0x3d,
  0xed, 0x48, 0x6c, 0x3e, 0x5b, 0xeb, 0x42, 0xbe, 0xb9, 0x42, 0x02, 0x3c,
  0x5b, 0x08, 0x6d, 0x3e, 0x97, 0x1c, 0x76, 0xbd, 0x81, 0xcb, 0x87, 0xbe,
  0xae, 0xfa, 0x12, 0xbe, 0xf0, 0xb6, 0x0d, 0xbe, 0x82, 0xfe, 0xc7, 0xbd,
  0x13, 0x9c, 0x3d, 0xbe, 0x30, 0x16, 0x67, 0x3c, 0x28, 0xd1, 0x2f, 0x3d,
  0x16, 0xbb, 0xa8, 0xbd, 0x79, 0x74, 0x47, 0x3d, 0x7a, 0x7e, 0x0c, 0x3e,
  0xa0, 0x19, 0x9f, 0x3d, 0x06, 0xd5, 0xff, 0xbd, 0xd1, 0xb0, 0x5f, 0x3d,
  0x96, 0xb9, 0x65, 0xbc, 0xac, 0x04, 0xe1, 0xbd, 0xf8, 0x6d, 0xda, 0xbd,
  0xe5, 0x38, 0x47, 0x3c, 0xae, 0xe8, 0x84, 0x3e, 0x38, 0xaf, 0xf5, 0x3d,
  0x50, 0xf1, 0xc0, 0x3d, 0x22, 0xe3, 0x9a, 0xbe, 0x90, 0xe2, 0x80, 0x3e,
  0xdc, 0x9e, 0x2c, 0x3f, 0x47, 0x49, 0x27, 0x3c, 0x52, 0x5a, 0x4d, 0xbe,
  0x6e, 0x19, 0x93, 0x3d, 0xfd, 0x8e, 0xe7, 0xbd, 0xcb, 0x6c, 0x7d, 0xbd,
  0x4b, 0x90, 0x9f, 0xbe, 0x41, 0xc0, 0x49, 0xbd, 0xbd, 0x23, 0x20, 0xbe,
  0xe7, 0x91, 0xf3, 0xbd, 0x33, 0x2b, 0xa7, 0xbe, 0xf3, 0xa7, 0x09, 0x3e,
  0xd5, 0x76, 0x2f, 0xbd, 0xd8, 0x3e, 0x23, 0xbc, 0x22, 0xf4, 0x23, 0xbe,
  0xa8, 0x02, 0x80, 0xbd, 0x42, 0xc7, 0x33, 0xbe, 0xc2, 0x75, 0x27, 0xbe,
  0x86, 0x09, 0x5f, 0xbe, 0xa9, 0xed, 0x6f, 0x3e, 0xec, 0xf1, 0x0f, 0xbd,
  0x70, 0xde, 0x0c, 0xbd, 0xe6, 0x35, 0xfc, 0x3e, 0x54, 0x2b, 0x0f, 0xbe,
  0x54, 0x27, 0x83, 0xbe, 0xda, 0xba, 0x56, 0xbd, 0x10, 0xaf, 0x77, 0xbd,
  0xae, 0x2a, 0xa5, 0x3d, 0x3a, 0x38, 0x03, 0xbe, 0x8f, 0xd5, 0xb5, 0xbd,
  0x1a, 0x7e, 0x7d, 0x3d, 0x18, 0x09, 0x90, 0xbe, 0x10, 0x1b, 0x87, 0xbe,
  0x90, 0x51, 0xde, 0xbd, 0x89, 0xad, 0x55, 0x3d, 0x11, 0xe3, 0xa1, 0xbd,
  0x9d, 0x8f, 0x2f, 0xbe, 0x30, 0xee, 0x29, 0xbe, 0x77, 0xd0, 0xca, 0xbd,
  0xdf, 0xae, 0xb0, 0xbe, 0x3b, 0x5c, 0xdf, 0x3c, 0x6e, 0x0c, 0xd3, 0x3d,
  0xe8, 0x8f, 0x08, 0xbe, 0x15, 0x68, 0x11, 0xbd, 0x0a, 0xd8, 0xfe, 0xbc,
  0xc6, 0xf9, 0x4c, 0xbe, 0x62, 0xc2, 0x2c, 0xbe, 0xbc, 0xc7, 0x68, 0xbe,
  0xea, 0x2a, 0xb8, 0x3e, 0x8c, 0xe9, 0x4b, 0x3d, 0xd8, 0x89, 0x8a, 0xbd,
  0x32, 0x78, 0x1a, 0x3e, 0xae, 0x9f, 0x7b, 0x3c, 0x4a, 0x30, 0x00, 0xbe,
  0x16, 0xee, 0xe0, 0xbc, 0x8f, 0xaf, 0xa6, 0xbe, 0x7e, 0x88, 0xec, 0x3c,
  0x03, 0x27, 0x1e, 0x3b, 0xcc, 0x1c, 0x5f, 0x3e, 0x17, 0x77, 0x93, 0xbd,
  0xa8, 0xee, 0x23, 0xbc, 0x28, 0xc6, 0x12, 0x3d, 0xfc, 0xbe, 0x05, 0xbd,
  0x3d, 0xed, 0xf4, 0xbd, 0x18, 0x2c, 0x5d, 0x3d, 0x46, 0x06, 0x10, 0xbe,
  0x39, 0x15, 0xc8, 0xbc, 0xe8, 0x39, 0x5e, 0x3f, 0x33, 0x1e, 0x0d, 0x3e,
  0xd7, 0xf4, 0xe1, 0x3d, 0xa3, 0x0c, 0xd7, 0x3c, 0xc1, 0x71, 0x25, 0xbe,
  0x5f, 0xd7, 0x63, 0x3c, 0x83, 0xf5, 0xec, 0xbd, 0x31, 0xbf, 0x37, 0xbd,
  0x94, 0x55, 0xfc, 0x3d, 0x58, 0x43, 0x33, 0xbd, 0x3e, 0xb7, 0x1b, 0x3c,
  0xcb, 0x8b, 0x46, 0x3c, 0x5d, 0x22, 0x26, 0xbe, 0x40, 0x73, 0x16, 0xbe,
  0x1f, 0x8a, 0x0f, 0xbe, 0xd5, 0x25, 0x02, 0xbd, 0xaf, 0xb3, 0x72, 0xbe,
  0xa3, 0xba, 0x96, 0x3d, 0x3f, 0xd8, 0x2a, 0xbc, 0xdf, 0x29, 0x68, 0xbd,
  0x50, 0x11, 0x07, 0xbe, 0x9c, 0xe2, 0x1d, 0x3e, 0x2f, 0xd2, 0x42, 0xbe,
  0x2a, 0x6e, 0x11, 0xbc, 0x6a, 0xe2, 0xdc, 0x3c, 0x96, 0x63, 0x12, 0xbd,
  0x7a, 0xf1, 0x45, 0x3f, 0x42, 0x64, 0x2f, 0x3e, 0x91, 0x29, 0xa3, 0xbd,
  0x55, 0x0c, 0x62, 0xbe, 0x48, 0x4f, 0xc1, 0xbd, 0x60, 0xfd, 0x86, 0x3d,
  0x2a, 0xbd, 0x90, 0xbd, 0x23, 0xb3, 0xb6, 0x3e, 0x19, 0x7b, 0x37, 0xbe,
  0x23, 0xd4, 0x9a, 0xbc, 0xc0, 0x2a, 0xcb, 0xbd, 0x7c, 0x44, 0xbc, 0xbd,
  0xbd, 0x45, 0x02, 0xbd, 0x74, 0x5d, 0x2d, 0xbe, 0x1e, 0x07, 0x0c, 0xbf,
  0x58, 0xd4, 0x93, 0x3e, 0xc0, 0x07, 0x2b, 0xbe, 0xe1, 0x16, 0x0b, 0xbe,
  0x8b, 0x59, 0x82, 0x3d, 0xac, 0x05, 0x10, 0xbd, 0x34, 0x36, 0x03, 0x3d,
  0xd4, 0x4a, 0x37, 0xbd, 0x6a, 0x1c, 0xad, 0xbd, 0x39, 0xf9, 0x1e, 0xbf,
  0x6a, 0xe7, 0xdc, 0xbe, 0x60, 0x18, 0xfe, 0xbd, 0x69, 0x89, 0x08, 0x3d,
  0x99, 0x83, 0x48, 0xbd, 0xd6, 0xee, 0x93, 0x3d, 0x23, 0x3b, 0x31, 0xbc,
  0x0b, 0x73, 0x4d, 0xbb, 0x84, 0x8a, 0x28, 0xbd, 0x5c, 0x98, 0x8a, 0x3e,
  0xb0, 0x5d, 0x71, 0xbd, 0x49, 0x83, 0x3e, 0xbe, 0x9e, 0xb4, 0xf5, 0xbd,
  0x1a, 0xed, 0xeb, 0xbd, 0xf8, 0xf8, 0xd5, 0xbd, 0x8e, 0xfa, 0x04, 0x3e,
  0x8a, 0x56, 0x86, 0x3e, 0xa4, 0xa9, 0xf2, 0xbd, 0xa9, 0x35, 0x83, 0x3e,
  0x5a, 0x84, 0xdc, 0xbd, 0xe8, 0x4c, 0xc8, 0xbd, 0x06, 0x78, 0x84, 0x3d,
  0xd0, 0xc5, 0xbc, 0x3e, 0x62, 0xa8, 0xd7, 0x3d, 0xa9, 0xe2, 0x6c, 0xbd,
  0xcb, 0xd8, 0xbe, 0xbd, 0x89, 0x1b, 0x8e, 0xbd, 0xac, 0xc0, 0xcc, 0xbd,
  0x78, 0x70, 0xd6, 0xbd, 0x6e, 0xa4, 0x89, 0x3d, 0x23, 0x8f, 0xcb, 0xbd,
  0xcc, 0xe8, 0x9b, 0xbd, 0x35, 0x70, 0xa5, 0x3d, 0x0b, 0x25, 0x53, 0x3e,
  0x20, 0xea, 0x87, 0x3d, 0xf0, 0xe4, 0xfd, 0xbd, 0x7a, 0xd4, 0x26, 0x3d,
  0x99, 0x59, 0x46, 0x3d, 0x7b, 0xfc, 0x85, 0x3d, 0x4b, 0x99, 0xf9, 0xbc,
  0x56, 0xcc, 0x3a, 0xbe, 0x48, 0xdd, 0x6f, 0xbe, 0x32, 0xbc, 0x32, 0xbd,
  0xad, 0xb9, 0x83, 0xbd, 0xcf, 0xe0, 0x34, 0x3e, 0x53, 0x21, 0xb7, 0xbe,
  0x2d, 0x02, 0xc8, 0xbc, 0x31, 0x6c, 0x02, 0xbe, 0xf3, 0xa6, 0x33, 0xbb,
  0xbc, 0x5f, 0x50, 0x3e, 0xfc, 0x13, 0x68, 0xbd, 0xaf, 0x78, 0x6e, 0x3e,
  0x58, 0x83, 0x97, 0x3e, 0xae, 0xa1, 0x6b, 0xbe, 0xa1, 0x2f, 0x9d, 0x3e,
  0x97, 0x17, 0x1c, 0xbe, 0xde, 0xc6, 0xb8, 0x3e, 0x80, 0xbd, 0x83, 0x3e,
  0x19, 0xf7, 0x88, 0x3c, 0x6e, 0x24, 0x24, 0xbe, 0x4b, 0x13, 0x6c, 0xbe,
  0xa4, 0xb2, 0x7c, 0xbe, 0x85, 0x48, 0xa2, 0xbd, 0xb9, 0x48, 0xed, 0xbe,
  0x44, 0x7a, 0x09, 0xbe, 0x12, 0xd8, 0x2d, 0x3e, 0x1a, 0xbd, 0xde, 0x3c,
  0xc5, 0x28, 0x9b, 0xbd, 0xbf, 0xd1, 0x63, 0xbd, 0x55, 0xb1, 0xa6, 0xbd,
  0x94, 0x39, 0x67, 0xbe, 0xda, 0x99, 0x2a, 0xbe, 0x62, 0xff, 0x28, 0xbe,
  0xcc, 0x28, 0x0b, 0xbe, 0x8b, 0x76, 0x47, 0xbe, 0x35, 0x49, 0x94, 0x3d,
  0xe5, 0x7d, 0x3f, 0xbd, 0x1f, 0x03, 0x09, 0xbe, 0xa5, 0x5d, 0x8a, 0xbe,
  0x5a, 0x98, 0x85, 0xbe, 0x65, 0xba, 0x51, 0x3e, 0x9b, 0x0c, 0x59, 0xbc,
  0x50, 0xc6, 0xc3, 0x3c, 0x17, 0x79, 0x76, 0x3c, 0x89, 0x45, 0x3a, 0xbe,
  0x30, 0x7c, 0x17, 0x3e, 0xd7, 0xb5, 0xa4, 0xbd, 0xa5, 0xd5, 0x1c, 0xbe,
  0xb2, 0xf8, 0x56, 0xbe, 0x06, 0xd0, 0xc0, 0xbd, 0xf1, 0xbe, 0xf6, 0x3c,
  0xbf, 0x8d, 0x43, 0x3e, 0x1b, 0x51, 0x8c, 0x3c, 0x6c, 0x8c, 0x01, 0x3d,
  0x27, 0xe3, 0x63, 0x3d, 0x6e, 0x0d, 0x0c, 0xbe, 0x3c, 0x86, 0xed, 0x3d,
  0x9a, 0x42, 0xe8, 0x3d, 0x56, 0x0a, 0x05, 0xbc, 0x9c, 0x55, 0xc7, 0x3e,
  0xb2, 0x2f, 0x57, 0x3d, 0x5a, 0x8d, 0xd3, 0x3d, 0x40, 0x2f, 0xd0, 0xbc,
  0xa4, 0x79, 0xf6, 0xbd, 0x26, 0xde, 0xff, 0xff, 0x10, 0x00, 0x00, 0x00,
  0x0a, 0x00, 0x00, 0x00, 0x1c, 0x00, 0x00, 0x00, 0x38, 0x00, 0x00, 0x00,
  0x04, 0x00, 0x00, 0x00, 0x10, 0x00, 0x00, 0x00, 0x04, 0x00, 0x00, 0x00,
  0x01, 0x00, 0x00, 0x00, 0x08, 0x00, 0x00, 0x00, 0x1a, 0x00, 0x00, 0x00,
  0x73, 0x65, 0x71, 0x75, 0x65, 0x6e, 0x74, 0x69, 0x61, 0x6c, 0x2f, 0x63,
  0x6f, 0x6e, 0x76, 0x32, 0x64, 0x5f, 0x31, 0x2f, 0x43, 0x6f, 0x6e, 0x76,
  0x32, 0x44, 0x00, 0x00, 0x9c, 0xdd, 0xff, 0xff, 0xa6, 0xde, 0xff, 0xff,
  0x04, 0x00, 0x00, 0x00, 0x80, 0x01, 0x00, 0x00, 0x53, 0xcf, 0x14, 0x3e,
  0xc6, 0xe4, 0x13, 0x3c, 0xf3, 0x13, 0x67, 0xbe, 0x6e, 0xaf, 0xcb, 0x3e,
  0xcd, 0xe6, 0x1f, 0x3e, 0x3b, 0x05, 0x59, 0x3e, 0xb0, 0xa0, 0xf6, 0xbe,
  0x60, 0x2f, 0x19, 0xbe, 0x07, 0xd9, 0xb3, 0x3d, 0x01, 0xf7, 0x91, 0xbd,
  0x6e, 0x80, 0x30, 0xbd, 0x74, 0x1c, 0x30, 0x3b, 0x5a, 0x5c, 0xae, 0x3d,
  0x30, 0x78, 0xb3, 0x3c, 0x32, 0xb6, 0x3f, 0x3d, 0x08, 0x02, 0xe7, 0x3e,
  0x1c, 0x08, 0xdd, 0x3d, 0x37, 0x02, 0x86, 0x3e, 0xbc, 0x15, 0xa8, 0xbd,
  0xa7, 0x8b, 0xfb, 0x3d, 0x34, 0x86, 0x48, 0xbe, 0xe1, 0x00, 0xc4, 0xbe,
  0x7b, 0x70, 0x7f, 0xbe, 0x76, 0x0c, 0x81, 0xbd, 0xb5, 0x32, 0x97, 0xbd,
  0x30, 0xad, 0xe8, 0x3d, 0xf1, 0x7b, 0xf4, 0x3d, 0xdf, 0x1c, 0x26, 0x3e,
  0xc4, 0xb5, 0x1d, 0xbe, 0x65, 0x35, 0x5e, 0x3e, 0x45, 0x70, 0x27, 0x3e,
  0x27, 0x3e, 0xdf, 0x3c, 0x4b, 0x2d, 0xe4, 0xbd, 0xda, 0x2e, 0xa5, 0x3e,
  0xff, 0x35, 0x22, 0xbc, 0x41, 0x1f, 0x1a, 0xbe, 0x40, 0xbc, 0x81, 0xbe,
  0xa8, 0x15, 0x9a, 0xbd, 0xb5, 0x04, 0xc2, 0x3d, 0x53, 0x93, 0x89, 0xbd,
  0x79, 0x89, 0x78, 0xbd, 0x08, 0x0b, 0x46, 0xbd, 0x85, 0x9e, 0x1d, 0x3e,
  0x06, 0xaa, 0x29, 0x3e, 0xcf, 0x14, 0x31, 0x3e, 0x27, 0x5e, 0x42, 0x3c,
  0xc2, 0x7e, 0x0b, 0x3e, 0xc3, 0xef, 0x64, 0x3e, 0xb4, 0x11, 0x5c, 0xba,
  0x1d, 0x3f, 0xc8, 0x3d, 0x1c, 0x66, 0x0b, 0xbe, 0x74, 0x18, 0x3c, 0xbe,
  0x70, 0x8d, 0x6c, 0x3e, 0xde, 0x98, 0xac, 0xbe, 0xaa, 0x8d, 0x9e, 0x3d,
  0x11, 0x26, 0xae, 0xbd, 0x84, 0x41, 0xa5, 0xbd, 0x57, 0x14, 0x2a, 0x3e,
  0x44, 0x4e, 0x50, 0xbe, 0x5d, 0x8e, 0xe4, 0x3e, 0x1a, 0xf9, 0x9a, 0xbd,
  0xb6, 0x7a, 0x9e, 0xba, 0x29, 0x7e, 0xb2, 0xbd, 0x79, 0x4b, 0x8f, 0xbd,
  0xae, 0xd3, 0x00, 0x3e, 0x31, 0x4d, 0x20, 0xbd, 0x14, 0x4d, 0x1c, 0xbd,
  0xdb, 0xa2, 0xfd, 0x3c, 0x63, 0x3a, 0xe4, 0xbd, 0xd5, 0x81, 0xbf, 0x3c,
  0x6f, 0x80, 0x16, 0x3d, 0x6e, 0x08, 0xc8, 0xbd, 0x50, 0xe0, 0xe3, 0x3d,
  0xf6, 0xfe, 0xfe, 0xbd, 0x64, 0x53, 0xe0, 0xbd, 0x7a, 0x9f, 0x9b, 0x3e,
  0x5f, 0xa3, 0x77, 0x3c, 0xcf, 0x86, 0x42, 0xbd, 0x81, 0xe1, 0x75, 0xbe,
  0x56, 0x02, 0xef, 0x3d, 0x59, 0x1b, 0x98, 0xbd, 0x8b, 0xd5, 0xb6, 0x3e,
  0x09, 0x8b, 0xe0, 0x3d, 0xdd, 0x25, 0x44, 0x3e, 0x5f, 0x47, 0xe7, 0xbc,
  0x8d, 0x49, 0xc3, 0xbd, 0x49, 0x08, 0xae, 0xbd, 0x79, 0x7d, 0x7f, 0xbe,
  0x1f, 0xc6, 0xd6, 0xbe, 0xc1, 0x51, 0xba, 0xbe, 0x8a, 0x79, 0x95, 0x3e,
  0x7d, 0xab, 0xe6, 0x3e, 0x69, 0x94, 0x83, 0x3e, 0x64, 0xdd, 0x06, 0x3d,
  0xec, 0x8b, 0xb9, 0x3d, 0xa5, 0xf4, 0xf7, 0x3d, 0xfe, 0xdf, 0xff, 0xff,
  0x10, 0x00, 0x00, 0x00, 0x09, 0x00, 0x00, 0x00, 0x1c, 0x00, 0x00, 0x00,
  0x38, 0x00, 0x00, 0x00, 0x04, 0x00, 0x00, 0x00, 0x08, 0x00, 0x00, 0x00,
  0x04, 0x00, 0x00, 0x00, 0x03, 0x00, 0x00, 0x00, 0x01, 0x00, 0x00, 0x00,
  0x18, 0x00, 0x00, 0x00, 0x73, 0x65, 0x71, 0x75, 0x65, 0x6e, 0x74, 0x69,
  0x61, 0x6c, 0x2f, 0x63, 0x6f, 0x6e, 0x76, 0x32, 0x64, 0x2f, 0x43, 0x6f,
  0x6e, 0x76, 0x32, 0x44, 0x00, 0x00, 0x00, 0x00, 0x74, 0xdf, 0xff, 0xff,
  0x7e, 0xe0, 0xff, 0xff, 0x04, 0x00, 0x00, 0x00, 0xc0, 0x00, 0x00, 0x00,
  0x89, 0x1f, 0x31, 0x3e, 0xbf, 0x5d, 0xcb, 0x3d, 0x9a, 0x3b, 0x9d, 0xbe,
  0xde, 0x3a, 0x74, 0x3e, 0x5f, 0x7b, 0x11, 0x3e, 0xc6, 0x3a, 0x9d, 0xbb,
  0xd1, 0x89, 0xcf, 0x3e, 0x70, 0xf5, 0x58, 0x3e, 0xb8, 0x28, 0x94, 0x3e,
  0x19, 0xd8, 0x42, 0xbe, 0xc5, 0xaf, 0x1b, 0xbe, 0x9b, 0x5a, 0xc7, 0x3e,
  0x1b, 0x23, 0x83, 0xbd, 0x21, 0x91, 0x2f, 0xbe, 0x75, 0x3b, 0xdc, 0x3d,
  0xd2, 0xa3, 0x5a, 0x3d, 0x66, 0x25, 0x6e, 0x3e, 0x4f, 0xb9, 0x16, 0x3d,
  0x73, 0x33, 0x85, 0xbe, 0xfb, 0x5f, 0xd3, 0xbe, 0x9e, 0x80, 0x47, 0x3e,
  0x31, 0xe3, 0x72, 0x3d, 0xc2, 0x16, 0xb3, 0x3e, 0xd4, 0x24, 0xa4, 0x3d,
  0x15, 0x0e, 0xa5, 0x3e, 0x59, 0x57, 0x85, 0xbe, 0x57, 0xfa, 0x5b, 0xbd,
  0x40, 0x2c, 0xfa, 0xbd, 0x55, 0x46, 0x28, 0xbe, 0xde, 0xf9, 0x94, 0xbe,
  0x65, 0x3b, 0x2a, 0x3e, 0xa2, 0x59, 0xc2, 0x3d, 0x7d, 0x3d, 0x9f, 0x3e,
  0x54, 0x75, 0xc4, 0x3c, 0xd7, 0xdd, 0x51, 0xbe, 0x72, 0x3a, 0x3d, 0xbf,
  0x24, 0x45, 0x01, 0x3e, 0x60, 0x8e, 0x4c, 0xbe, 0xe2, 0x38, 0xa7, 0x3e,
  0xb0, 0x4b, 0x91, 0x3e, 0xae, 0x51, 0x93, 0x3e, 0xde, 0xb9, 0x2f, 0xbf,
  0xd0, 0x9f, 0x02, 0xbd, 0xeb, 0x27, 0x89, 0xbe, 0x98, 0xe2, 0x1b, 0xbe,
  0x99, 0xdb, 0x7e, 0x3e, 0x7e, 0xb9, 0xa7, 0x3d, 0xf1, 0x08, 0xf1, 0x3a,
  0x16, 0xe1, 0xff, 0xff, 0x10, 0x00, 0x00, 0x00, 0x08, 0x00, 0x00, 0x00,
  0x14, 0x00, 0x00, 0x00, 0x30, 0x00, 0x00, 0x00, 0x02, 0x00, 0x00, 0x00,
  0x03, 0x00, 0x00, 0x00, 0x10, 0x00, 0x00, 0x00, 0x19, 0x00, 0x00, 0x00,
  0x73, 0x65, 0x71, 0x75, 0x65, 0x6e, 0x74, 0x69, 0x61, 0x6c, 0x2f, 0x64,
  0x65, 0x6e, 0x73, 0x65, 0x5f, 0x31, 0x2f, 0x4d, 0x61, 0x74, 0x4d, 0x75,
  0x6c, 0x00, 0x00, 0x00, 0x84, 0xe0, 0xff, 0xff, 0x8e, 0xe1, 0xff, 0xff,
  0x04, 0x00, 0x00, 0x00, 0x00, 0x1c, 0x00, 0x00, 0x6c, 0x30, 0x92, 0xbe,
  0xe6, 0x1c, 0x64, 0xbe, 0xc3, 0x00, 0x39, 0x3e, 0x03, 0xf1, 0xe3, 0x3d,
  0x1f, 0x20, 0x5f, 0xbd, 0x1a, 0xa4, 0x90, 0x3e, 0xfa, 0x7c, 0x07, 0xbe,
  0x2a, 0xef, 0x61, 0xbe, 0x0c, 0xcb, 0x11, 0xbf, 0xfc, 0xeb, 0x3e, 0xbe,
  0xf1, 0xe0, 0x01, 0x3f, 0x85, 0xa9, 0xf9, 0xbe, 0x01, 0x59, 0xd2, 0xbd,
  0xb9, 0xee, 0x88, 0x3d, 0x99, 0xdf, 0x2f, 0xbe, 0x30, 0x42, 0x4a, 0x3e,
  0x38, 0xd3, 0x6d, 0x3d, 0xe3, 0x97, 0x89, 0x3d, 0xc1, 0xd1, 0x59, 0x3e,
  0xcb, 0x37, 0x03, 0x3d, 0xf6, 0x7d, 0xab, 0xbd, 0x8a, 0xfc, 0xd3, 0x3d,
  0x04, 0x1b, 0x3f, 0xbd, 0x8e, 0x67, 0xb8, 0x3e, 0x8e, 0x9c, 0xb6, 0xbe,
  0xe3, 0xe5, 0x95, 0xbe, 0x00, 0xaa, 0x0f, 0x3f, 0x17, 0x60, 0x15, 0xbe,
  0x56, 0x38, 0x22, 0x3d, 0xe3, 0xc9, 0x5e, 0x3d, 0x0f, 0x17, 0xf3, 0x3e,
  0x46, 0x69, 0x0f, 0xbc, 0x9c, 0x29, 0x39, 0xbc, 0xbe, 0xe3, 0xe2, 0xbd,
  0x00, 0xc7, 0x4b, 0x3c, 0xbe, 0x73, 0xb1, 0x3e, 0xaa, 0xd3, 0xe4, 0xbd,
  0xa1, 0x03, 0x82, 0x3e, 0x4f, 0x5a, 0x26, 0x3e, 0x29, 0x37, 0xb8, 0x3d,
  0x97, 0x2e, 0x6b, 0xbe, 0x3e, 0x9b, 0x0d, 0xbe, 0x5b, 0x90, 0xbc, 0x3e,
  0x11, 0x2e, 0x39, 0xbe, 0x37, 0x42, 0x19, 0xbd, 0x7d, 0x51, 0x5f, 0x3d,
  0x0a, 0x36, 0x21, 0x3f, 0xc8, 0xc8, 0x8c, 0x3d, 0xe1, 0xc6, 0xc9, 0xbc,
  0x1e, 0xb3, 0xaf, 0xbd, 0x39, 0x48, 0xa6, 0xbd, 0x70, 0x71, 0xcf, 0x3e,
  0xc4, 0x88, 0xd6, 0xbd, 0xb4, 0xad, 0xf3, 0xbb, 0x0e, 0xfb, 0xec, 0x3c,
  0xb4, 0x34, 0x53, 0x3d, 0xfd, 0x83, 0xb6, 0xbe, 0xc6, 0x90, 0x2e, 0xbe,
  0xd6, 0x31, 0x93, 0x3d, 0xb9, 0x2c, 0x31, 0xbe, 0x77, 0x3f, 0x20, 0xb9,
  0xbf, 0x5c, 0xab, 0x3d, 0xa4, 0x34, 0xb0, 0x3e, 0x50, 0xff, 0xba, 0x3d,
  0x5b, 0x12, 0x9a, 0x3d, 0xe2, 0x23, 0x02, 0xbe, 0xf1, 0x39, 0x0d, 0x3e,
  0x6d, 0x42, 0x8f, 0x3e, 0xc8, 0x8c, 0x53, 0xbe, 0xdd, 0xd9, 0x64, 0xbe,
  0xab, 0xf7, 0xf3, 0xbc, 0x25, 0xe0, 0x7d, 0xbd, 0xca, 0x3b, 0x91, 0xbe,
  0x8d, 0xb9, 0xe9, 0xbd, 0x8a, 0x18, 0x47, 0x3e, 0x51, 0x13, 0x44, 0xbe,
  0x8f, 0x90, 0x19, 0x3e, 0xc8, 0xdf, 0xaf, 0xbc, 0xa1, 0xad, 0x04, 0xbd,
  0xfc, 0xe1, 0x90, 0x3d, 0xc2, 0x7e, 0x12, 0xbe, 0xbd, 0xf3, 0x46, 0xbe,
  0xdb, 0xcf, 0xf2, 0x3c, 0x35, 0xff, 0xcd, 0x3e, 0xcf, 0xa2, 0x8b, 0xbe,
  0x7f, 0xf1, 0xaf, 0xbd, 0xba, 0x00, 0x90, 0x3b, 0x27, 0xc1, 0x92, 0x3c,
  0xdf, 0x1e, 0xa1, 0xbe, 0x5b, 0x54, 0x0b, 0xbe, 0x3f, 0x0e, 0xc9, 0x3d,
  0xb9, 0x4c, 0x11, 0xbd, 0x8e, 0x17, 0xb0, 0x3c, 0x5a, 0xaf, 0xf2, 0x3c,
  0x6e, 0xf2, 0x84, 0x3e, 0x2c, 0xc8, 0x8f, 0xbc, 0xfe, 0x6e, 0x37, 0xbe,
  0xa0, 0x3b, 0x85, 0xbe, 0xfd, 0xde, 0x88, 0x3c, 0xa0, 0xbf, 0x8a, 0x3d,
  0xda, 0x7e, 0x13, 0xbe, 0x06, 0xf5, 0xd1, 0x3d, 0x1b, 0x8f, 0xbc, 0xbd,
  0xa7, 0xc4, 0x36, 0x3c, 0x05, 0x63, 0xbb, 0xbd, 0x63, 0x63, 0x7a, 0xbe,
  0xad, 0x88, 0xa4, 0x3e, 0x0f, 0xd3, 0x61, 0xbe, 0x69, 0xe8, 0x0a, 0xbe,
  0x61, 0x30, 0x89, 0x3d, 0xef, 0xa8, 0xb9, 0x3d, 0x8e, 0x40, 0xd1, 0x3d,
  0xae, 0xc0, 0xe9, 0xbd, 0xcd, 0x71, 0x63, 0x3d, 0x37, 0x97, 0x7e, 0xbe,
  0x12, 0x71, 0x94, 0xbe, 0xb5, 0x40, 0x21, 0x3e, 0x7d, 0xe3, 0x2c, 0x3e,
  0x74, 0xc1, 0x2e, 0x3e, 0x53, 0x13, 0x0d, 0x3e, 0x81, 0x34, 0x5b, 0x3e,
  0xa7, 0x83, 0x00, 0x3f, 0xf7, 0x0c, 0x58, 0xbd, 0x17, 0xab, 0xa7, 0x3d,
  0x2d, 0x60, 0xd8, 0xbd, 0x97, 0xca, 0xcc, 0xbe, 0x76, 0x4b, 0x63, 0xbe,
  0x05, 0xf7, 0xa5, 0xbb, 0x75, 0xfe, 0xd1, 0xbe, 0x63, 0x34, 0x83, 0xbc,
  0x9f, 0xf2, 0x19, 0xbe, 0x25, 0xfb, 0xce, 0xbd, 0xa7, 0x7f, 0x4b, 0x3c,
  0xe2, 0x0d, 0x3d, 0xbe, 0x31, 0xc0, 0x99, 0x3d, 0xfa, 0x20, 0x6f, 0xbe,
  0x89, 0xec, 0x23, 0x3d, 0xbf, 0xf3, 0x10, 0x3e, 0xa3, 0x09, 0xc1, 0xbe,
  0x10, 0xf7, 0x9d, 0xbe, 0xa0, 0x3b, 0x79, 0xbd, 0x36, 0x2a, 0x0a, 0xbe,
  0x80, 0x06, 0x49, 0xbd, 0xd2, 0x42, 0xe7, 0xbd, 0x17, 0x30, 0xb7, 0xbe,
  0xf1, 0x1a, 0xcb, 0x3e, 0xc0, 0x1f, 0xa2, 0x3e, 0x0a, 0xa0, 0xca, 0xbe,
  0xa2, 0xa7, 0x94, 0x3e, 0x5b, 0x5f, 0xea, 0xbb, 0x3b, 0x90, 0x83, 0xbd,
  0xcf, 0xeb, 0xc9, 0xbe, 0x4b, 0x11, 0x6f, 0xbe, 0xae, 0x5a, 0x09, 0x3f,
  0x1a, 0xcc, 0x93, 0xbe, 0x69, 0xbf, 0xae, 0x3c, 0x70, 0x5a, 0xb6, 0x3e,
  0x4f, 0x73, 0x3a, 0x3e, 0x02, 0xcb, 0x76, 0xbe, 0x94, 0xc6, 0x7e, 0xbe,
  0xe7, 0xe0, 0x1d, 0xbe, 0xd2, 0x27, 0xd4, 0x3e, 0xb5, 0x10, 0x1b, 0xbe,
  0x6c, 0x64, 0xfe, 0xbc, 0xa0, 0x16, 0x5d, 0x3c, 0x5c, 0x38, 0xb9, 0xbd,
  0x1c, 0x75, 0xbd, 0xbd, 0x80, 0x17, 0xc6, 0xbd, 0x9e, 0x8f, 0xef, 0x3d,
  0xef, 0x1d, 0x5e, 0x3e, 0x3f, 0x1f, 0x96, 0xbe, 0x20, 0x02, 0x40, 0xbe,
  0xd1, 0x3c, 0x25, 0x3f, 0x1b, 0x4f, 0x03, 0x3e, 0x05, 0x5a, 0x8a, 0x3c,
  0xf2, 0x36, 0xa6, 0xbd, 0x54, 0x53, 0x15, 0xbf, 0xa8, 0x50, 0xb5, 0x3e,
  0x1e, 0x7d, 0xb4, 0xbe, 0xb9, 0x5f, 0x85, 0x3d, 0x60, 0x85, 0x4c, 0xbe,
  0x35, 0x63, 0xb6, 0xbc, 0x1c, 0x20, 0x68, 0xbe, 0xf9, 0xe4, 0x90, 0x3d,
  0x34, 0x05, 0xa6, 0x3d, 0x70, 0xb7, 0xa6, 0x3e, 0xc6, 0x54, 0x5b, 0x3d,
  0x25, 0x0a, 0x85, 0xbe, 0x17, 0x1f, 0xde, 0x3e, 0x5a, 0xb2, 0xab, 0xbc,
  0xf8, 0x14, 0x06, 0xbe, 0x76, 0x0e, 0xae, 0x3c, 0x7f, 0xbd, 0x9e, 0xbe,
  0x29, 0xda, 0x15, 0x3e, 0xde, 0xd6, 0x6f, 0xbe, 0xe4, 0xad, 0x5d, 0x3e,
  0xd8, 0xa5, 0x46, 0xbb, 0x60, 0xd4, 0xd0, 0x3a, 0x0d, 0xf6, 0x9e, 0xbd,
  0x9a, 0x7f, 0xe2, 0x3e, 0xef, 0xea, 0x2e, 0x3e, 0x88, 0xcd, 0x2b, 0x3f,
  0xa5, 0x7d, 0x46, 0xbe, 0x20, 0x70, 0x51, 0xbe, 0xfb, 0x66, 0xe4, 0x3d,
  0xb8, 0x89, 0x61, 0xbe, 0x52, 0x71, 0x13, 0xbe, 0x5d, 0xd4, 0x43, 0x3e,
  0x6a, 0xea, 0xd4, 0xbd, 0x18, 0xcc, 0x90, 0x3d, 0xb0, 0x32, 0x8c, 0xbe,
  0x93, 0x10, 0x69, 0x3d, 0x81, 0x3a, 0xfe, 0x3c, 0xde, 0xc2, 0x1b, 0xbe,
  0xab, 0xda, 0xba, 0x3b, 0x2b, 0x43, 0x63, 0x3e, 0x49, 0xb0, 0x26, 0x3d,
  0xa4, 0x52, 0xb9, 0x3e, 0xc3, 0x54, 0x2e, 0xbd, 0x1e, 0x5b, 0xa1, 0x3d,
  0x15, 0x4d, 0xc0, 0x3d, 0x33, 0x44, 0x3f, 0xbe, 0xff, 0xec, 0x02, 0xbe,
  0x52, 0xb0, 0x7a, 0x3d, 0xbf, 0x70, 0x40, 0xbe, 0x4b, 0xcd, 0x88, 0xbe,
  0x82, 0x05, 0x56, 0xbe, 0xe5, 0x19, 0xa9, 0x3e, 0xdf, 0x5b, 0x64, 0xbe,
  0xdb, 0x88, 0x82, 0x3e, 0xbd, 0x4c, 0x03, 0xbe, 0x7e, 0x02, 0x99, 0xbd,
  0xfb, 0x4b, 0xce, 0xbe, 0x36, 0xaf, 0xb9, 0xbe, 0xf4, 0x82, 0xa1, 0x3e,
  0xc1, 0xb8, 0x21, 0xbf, 0xd0, 0x17, 0x33, 0xbe, 0x07, 0xf3, 0x47, 0x3e,
  0x5b, 0x25, 0xb7, 0xbe, 0x9b, 0xef, 0xfb, 0x3d, 0x82, 0x3a, 0x98, 0x3e,
  0xdf, 0x5c, 0x0b, 0xbd, 0x9e, 0x13, 0x8b, 0x3e, 0x69, 0x58, 0xd1, 0x3e,
  0xca, 0xac, 0x51, 0xbd, 0x96, 0xb7, 0x2c, 0x3e, 0x8a, 0xc9, 0x87, 0x3c,
  0xef, 0x7c, 0x41, 0x3e, 0x92, 0x3b, 0x49, 0xbe, 0x75, 0x11, 0xaa, 0xbe,
  0x75, 0x53, 0xf6, 0x3e, 0xa5, 0xc3, 0x97, 0xbe, 0x55, 0x5e, 0x7c, 0xbe,
  0x89, 0x0e, 0xf3, 0x3d, 0xf1, 0x2b, 0xb3, 0x3e, 0xd3, 0xbd, 0xd6, 0x3d,
  0xcc, 0x2c, 0xb1, 0x3d, 0x62, 0x62, 0x3d, 0xbe, 0x34, 0x35, 0xeb, 0x3e,
  0x14, 0x20, 0x70, 0xb9, 0xb3, 0x46, 0x45, 0xbe, 0xbb, 0x2b, 0xcd, 0x3c,
  0x07, 0xbf, 0xbb, 0x3d, 0x45, 0x33, 0x6d, 0x3e, 0xa8, 0xf4, 0x1d, 0xbe,
  0xc5, 0xd2, 0x2b, 0xbd, 0x6e, 0x4d, 0xcf, 0x3e, 0x41, 0x91, 0x7c, 0x3d,
  0x57, 0x92, 0x82, 0xbe, 0xa3, 0x6f, 0x72, 0xbe, 0xf9, 0xeb, 0x89, 0x3e,
  0xd5, 0x3c, 0x3d, 0x3c, 0xd8, 0xd3, 0x56, 0x3e, 0x8c, 0xeb, 0x8b, 0xbe,
  0xca, 0x08, 0xb6, 0x3e, 0x16, 0xa1, 0x10, 0x3e, 0xb7, 0xbe, 0xde, 0xbd,
  0xac, 0xff, 0xa0, 0x3d, 0xc3, 0xaa, 0xeb, 0x3c, 0xb1, 0x4f, 0x0c, 0x3e,
  0x69, 0x3f, 0x28, 0xbd, 0xbd, 0xbf, 0x9c, 0xbd, 0xdf, 0xc2, 0x9d, 0xbd,
  0x65, 0xb8, 0xe5, 0x3d, 0x26, 0x25, 0x54, 0xbe, 0x17, 0xe4, 0x02, 0xbd,
  0x6b, 0xfc, 0xa8, 0x3e, 0x8e, 0x70, 0xcf, 0x3d, 0x48, 0xbd, 0x09, 0x3d,
  0xb0, 0x86, 0x56, 0xbe, 0x20, 0xa8, 0xbc, 0x3c, 0x74, 0x5d, 0x7c, 0xbd,
  0x11, 0x85, 0xc4, 0xbd, 0x4a, 0xde, 0xe3, 0x3d, 0x55, 0x08, 0xee, 0xbc,
  0xd6, 0x28, 0xf8, 0x3d, 0x66, 0x2b, 0x19, 0xbd, 0x71, 0xaa, 0x29, 0xbe,
  0x06, 0x01, 0x16, 0x3e, 0x34, 0x71, 0x23, 0xbe, 0xbe, 0xe2, 0xd7, 0xbd,
  0x04, 0x47, 0xd6, 0x3d, 0xc7, 0x7a, 0x2b, 0x3e, 0x12, 0x09, 0x78, 0x3d,
  0xd4, 0x47, 0x29, 0x3d, 0xa8, 0xd1, 0x8b, 0xbe, 0xb9, 0x18, 0x46, 0x3d,
  0x42, 0xb5, 0x36, 0x3e, 0xc8, 0x69, 0xb5, 0xbe, 0x7c, 0x03, 0xa6, 0x3d,
  0x38, 0xfa, 0xa8, 0x3d, 0x6c, 0x9b, 0x9d, 0x3d, 0x52, 0xdb, 0xb6, 0xbe,
  0x00, 0xb0, 0x09, 0xbe, 0x17, 0xa1, 0xf7, 0x3e, 0x15, 0x97, 0x03, 0xbe,
  0xd4, 0x2b, 0x3e, 0xbe, 0x02, 0x75, 0x04, 0xbe, 0x0b, 0xb8, 0x32, 0x3e,
  0xf8, 0xde, 0x97, 0x3c, 0x3e, 0x2b, 0x1e, 0xbe, 0x9d, 0xd8, 0x14, 0xbf,
  0x16, 0x7a, 0x3c, 0x3e, 0xf0, 0x08, 0xa1, 0x3e, 0xcb, 0x34, 0xd2, 0xbd,
  0x94, 0xe8, 0x97, 0x3e, 0x6c, 0x82, 0xbb, 0xbd, 0x61, 0x50, 0x84, 0xbc,
  0x3f, 0x94, 0xd8, 0xbd, 0xeb, 0x17, 0x2a, 0xbe, 0x0a, 0x43, 0x00, 0x3f,
  0xe4, 0x2e, 0xe4, 0xbe, 0x8f, 0x02, 0x05, 0xbf, 0x91, 0xdd, 0xad, 0xbd,
  0x93, 0xba, 0x33, 0x3e, 0x97, 0x15, 0x14, 0x3d, 0xc5, 0x9b, 0xaf, 0xbc,
  0xe2, 0x05, 0x48, 0x3e, 0x7b, 0xcb, 0x0d, 0xbe, 0x43, 0x0d, 0x3a, 0x3c,
  0x57, 0xc3, 0xaa, 0xbe, 0x3e, 0x0c, 0x51, 0xbd, 0x28, 0xdc, 0x70, 0xbe,
  0xdf, 0x07, 0x3a, 0xbe, 0xc4, 0x90, 0x5d, 0xbe, 0x80, 0x7f, 0x08, 0xbe,
  0xe9, 0x9f, 0x40, 0x3b, 0x0b, 0x56, 0x1b, 0xbe, 0x76, 0xd8, 0x63, 0xbe,
  0x61, 0x65, 0x82, 0xbe, 0xec, 0x5b, 0x8a, 0xbd, 0xc7, 0xae, 0x5a, 0xbe,
  0x1b, 0xca, 0x2d, 0x3d, 0x47, 0x9d, 0x7f, 0x3e, 0x6b, 0x30, 0xd9, 0x3d,
  0x7e, 0xe2, 0x19, 0xbe, 0xa9, 0x1c, 0xd2, 0x3d, 0x0e, 0xac, 0x43, 0x3c,
  0xf2, 0x0b, 0x6a, 0xbe, 0x32, 0x7e, 0x5a, 0xbe, 0x53, 0x62, 0xe7, 0x3b,
  0x54, 0x50, 0xd1, 0x3c, 0x9b, 0x16, 0x63, 0xbe, 0x24, 0x32, 0x08, 0xbe,
  0x7b, 0x94, 0x91, 0x3d, 0x4f, 0x40, 0x42, 0xbe, 0x6f, 0xa1, 0x3c, 0xbe,
  0x6e, 0xed, 0x0c, 0xbe, 0x0d, 0x83, 0x23, 0xbd, 0x82, 0x76, 0xd9, 0x3e,
  0x88, 0x88, 0x25, 0xbe, 0x31, 0x74, 0x3a, 0x3e, 0x7e, 0x7c, 0x8b, 0x3d,
  0x41, 0xcd, 0xef, 0xbd, 0x32, 0x82, 0xca, 0xbd, 0x60, 0xf1, 0x10, 0xbe,
  0x8a, 0xcc, 0x09, 0x3e, 0xfc, 0x4b, 0x48, 0x3d, 0x2e, 0xfb, 0xf6, 0xbd,
  0xcc, 0x22, 0x3e, 0xbe, 0xa7, 0x1e, 0x28, 0x3e, 0xa5, 0x1c, 0xb7, 0xbe,
  0x0d, 0x22, 0x5b, 0xba, 0xab, 0x9c, 0x84, 0xbe, 0x65, 0xfe, 0x34, 0x3d,
  0xf8, 0x01, 0xf4, 0x3e, 0x91, 0x45, 0x89, 0xbd, 0x2e, 0x18, 0x20, 0xbe,
  0xf5, 0x29, 0x16, 0xbe, 0x29, 0x82, 0x05, 0x3e, 0xaa, 0xc8, 0x63, 0x3e,
  0x6c, 0xc0, 0x33, 0x3e, 0xe6, 0x1c, 0x75, 0xbe, 0xd1, 0x8e, 0x6d, 0xbe,
  0x0f, 0x4e, 0xdf, 0xbd, 0x84, 0x69, 0x7c, 0x3c, 0x01, 0xf8, 0x93, 0x3d,
  0x6a, 0x3f, 0x8d, 0xbe, 0x5b, 0xaf, 0xcf, 0x3d, 0x8a, 0xe1, 0x0a, 0xbe,
  0xf1, 0x4a, 0x80, 0xbc, 0xb7, 0x8a, 0x9c, 0x3e, 0xc4, 0x81, 0xb2, 0xbd,
  0x3b, 0x35, 0xb1, 0xbd, 0x9f, 0xc6, 0x60, 0x3d, 0xec, 0xc1, 0x17, 0xbd,
  0x9e, 0xfd, 0x27, 0xbe, 0x23, 0x57, 0x00, 0xbd, 0x6d, 0xdb, 0x7e, 0xbe,
  0x0a, 0x9d, 0xac, 0x3d, 0x54, 0x6c, 0x2d, 0x3e, 0xa6, 0x32, 0x16, 0x3d,
  0xe5, 0x3c, 0xba, 0xbd, 0x2b, 0x6e, 0x5c, 0xbe, 0x20, 0x3b, 0x9c, 0xbd,
  0xa2, 0xdd, 0x35, 0xbe, 0x22, 0x80, 0x94, 0xbc, 0x21, 0x54, 0x96, 0x3e,
  0xf7, 0xb5, 0x87, 0xbe, 0x14, 0x1b, 0x97, 0x3d, 0xed, 0x51, 0x17, 0x3b,
  0xbd, 0x78, 0xa9, 0x3d, 0x26, 0xbf, 0xdd, 0xbd, 0xa0, 0x2b, 0x30, 0xbe,
  0x6d, 0x50, 0x90, 0x3c, 0x86, 0x8e, 0x0d, 0x3e, 0xb3, 0x5e, 0x48, 0x3d,
  0xd0, 0x67, 0x18, 0xbe, 0x43, 0x5a, 0x80, 0x3d, 0xba, 0xdb, 0x74, 0xbe,
  0xbf, 0xfc, 0xc6, 0xbd, 0x6b, 0x84, 0xe8, 0xbd, 0xa1, 0x61, 0xb2, 0xbd,
  0xe8, 0xb4, 0x1b, 0x3e, 0x11, 0x7a, 0x82, 0xbd, 0x1d, 0xa5, 0x14, 0xbe,
  0xcf, 0xf2, 0x13, 0xbd, 0x88, 0x7f, 0xbe, 0xbd, 0x82, 0x0f, 0x21, 0xbe,
  0x05, 0xa4, 0x03, 0xbe, 0x57, 0x69, 0xc3, 0xbd, 0xe8, 0xf4, 0x7a, 0xbe,
  0x37, 0x9c, 0x0f, 0xbd, 0xc7, 0x0e, 0xb3, 0xbd, 0x2d, 0x55, 0x69, 0xbe,
  0xce, 0xe0, 0x1d, 0xbe, 0x06, 0x65, 0xa5, 0xbd, 0x08, 0xc7, 0x12, 0x3e,
  0xc3, 0x83, 0x30, 0xbe, 0xb4, 0x41, 0xc1, 0xbe, 0x4d, 0x81, 0x47, 0xbe,
  0x5b, 0xe0, 0x8a, 0xbe, 0x96, 0x3f, 0x74, 0xbe, 0x35, 0xd0, 0x9d, 0xbc,
  0xac, 0x14, 0x2d, 0xbe, 0x04, 0x56, 0x7c, 0xbe, 0x47, 0xf3, 0xc2, 0xbd,
  0x30, 0x74, 0x1a, 0x3d, 0x05, 0x5f, 0xbf, 0xbd, 0x58, 0x7a, 0x7c, 0xbe,
  0x77, 0x1f, 0x08, 0xbf, 0x48, 0xd7, 0x19, 0xbd, 0x51, 0x90, 0xea, 0xbd,
  0xe1, 0xb2, 0xa3, 0xbe, 0xb8, 0x5a, 0xd6, 0xbd, 0x19, 0x22, 0xcb, 0xbd,
  0x96, 0x82, 0xb3, 0x3d, 0x6f, 0xfa, 0xb6, 0xbb, 0xb5, 0x09, 0xbb, 0xbe,
  0xc2, 0xb5, 0x18, 0xbe, 0xb9, 0x9a, 0xa7, 0xbd, 0x19, 0xd4, 0x9a, 0xbe,
  0x79, 0xa5, 0x8a, 0xbd, 0xd6, 0x7b, 0x65, 0xbe, 0x12, 0x19, 0xc0, 0xbb,
  0xaf, 0x86, 0x14, 0xbe, 0x86, 0x1f, 0x82, 0x3d, 0x06, 0x33, 0x01, 0xbc,
  0xf1, 0x7f, 0x2b, 0xbe, 0xb5, 0x5f, 0x15, 0xbf, 0xde, 0x66, 0xa6, 0x3d,
  0x20, 0x04, 0x6c, 0xbe, 0x0b, 0xeb, 0xf3, 0x3d, 0x1c, 0x4e, 0x19, 0xbd,
  0x9b, 0x3a, 0x95, 0xbe, 0x03, 0x9e, 0x70, 0xbe, 0xc0, 0xd9, 0xf2, 0xbd,
  0xb1, 0xf3, 0x16, 0xbe, 0xe5, 0x48, 0xab, 0xbe, 0xbb, 0x72, 0xa1, 0x3c,
  0x66, 0x74, 0x2b, 0xbe, 0xc9, 0x7e, 0xe4, 0x3c, 0x9b, 0xdb, 0x84, 0xba,
  0x6e, 0x7b, 0x04, 0xbd, 0x85, 0x28, 0x6e, 0xbd, 0xbd, 0x86, 0xd8, 0xbe,
  0x16, 0x56, 0xcc, 0xbe, 0xa9, 0x58, 0x15, 0xbf, 0x6e, 0x8f, 0x82, 0xbe,
  0xfb, 0xdd, 0xad, 0xbe, 0xe7, 0x0f, 0xca, 0xbe, 0x87, 0x94, 0x3c, 0xbe,
  0x47, 0x7f, 0x23, 0xbe, 0x2c, 0x2c, 0x0e, 0xbe, 0x3d, 0x49, 0x1a, 0xbf,
  0xf7, 0x2f, 0x2c, 0xbe, 0xc2, 0xd6, 0x98, 0xbb, 0xcf, 0x46, 0x24, 0xbe,
  0xec, 0x2a, 0xc0, 0xbc, 0x46, 0xbc, 0x20, 0xbc, 0x48, 0x05, 0x01, 0x3d,
  0xf9, 0x93, 0x0c, 0xbf, 0x05, 0xb2, 0x72, 0xbe, 0x1c, 0x76, 0xb0, 0xbe,
  0x67, 0x4e, 0xb8, 0xbc, 0x99, 0x7f, 0x08, 0xbe, 0xd6, 0xbf, 0x79, 0x3e,
  0xaf, 0x00, 0x13, 0xbe, 0x35, 0x61, 0x91, 0xbe, 0x4c, 0x95, 0xff, 0x3d,
  0x4b, 0x8d, 0xb8, 0xbe, 0x2f, 0x1c, 0xc3, 0xbd, 0x07, 0x49, 0x68, 0x3c,
  0xef, 0x4e, 0xd7, 0xbe, 0x79, 0x36, 0x05, 0xbe, 0xb2, 0xe6, 0x4e, 0xbc,
  0xaf, 0x11, 0xd4, 0x3d, 0xfc, 0x48, 0xa4, 0xbe, 0xe6, 0x55, 0xed, 0x3d,
  0xdb, 0x94, 0x0b, 0xbe, 0x84, 0xd0, 0xbe, 0x3e, 0x3d, 0xed, 0x1f, 0xbe,
  0x58, 0xa6, 0x55, 0x3d, 0x00, 0x36, 0x9f, 0xbe, 0x2b, 0x87, 0x92, 0xbd,
  0xc8, 0xac, 0xa6, 0xbe, 0x26, 0x3a, 0xdf, 0xbc, 0xac, 0x9a, 0x14, 0xbe,
  0x86, 0x1d, 0x18, 0x3d, 0x6d, 0x62, 0x21, 0x3e, 0xd0, 0xbb, 0x03, 0x3e,
  0x3c, 0x45, 0xd5, 0xbb, 0x00, 0x01, 0xd9, 0x3e, 0x04, 0x65, 0xaa, 0xbe,
  0xb9, 0xb8, 0x44, 0x3e, 0x83, 0xe4, 0xbf, 0x3c, 0x30, 0x3f, 0x4a, 0x3d,
  0x0f, 0xda, 0xaa, 0xbe, 0x79, 0xf0, 0x9b, 0x3e, 0xbb, 0xfe, 0x35, 0xbe,
  0xfa, 0xee, 0xdf, 0x3d, 0x30, 0x0f, 0x87, 0xbe, 0x18, 0xc3, 0x73, 0x3d,
  0xda, 0x1b, 0x75, 0xbe, 0xfa, 0x55, 0x16, 0xbe, 0x7a, 0x2e, 0xbd, 0x3d,
  0x5c, 0x1f, 0xcd, 0x3d, 0x8f, 0xe2, 0x04, 0x3d, 0x92, 0x6b, 0x99, 0x3c,
  0x44, 0xcc, 0x60, 0x3e, 0x34, 0x65, 0x7e, 0x3d, 0xe7, 0xa8, 0x38, 0xbe,
  0x51, 0xe3, 0x3c, 0xbd, 0xeb, 0x06, 0x5a, 0x3d, 0xd6, 0xa5, 0x65, 0xbc,
  0xdd, 0x0d, 0x34, 0xbe, 0x12, 0xf2, 0x42, 0x3d, 0xc3, 0x30, 0x1f, 0xbe,
  0x95, 0x0b, 0xc7, 0xbb, 0xb1, 0x42, 0xe9, 0xbd, 0xca, 0x9b, 0x07, 0xbe,
  0x7e, 0xba, 0x4e, 0xbd, 0x24, 0xf4, 0x2c, 0xbe, 0x78, 0x6c, 0x3d, 0xbe,
  0xb9, 0x36, 0xa8, 0xbd, 0x10, 0x75, 0x41, 0xbe, 0xe3, 0xc6, 0x16, 0xbd,
  0x40, 0x35, 0xc1, 0x3d, 0x8c, 0xd5, 0x46, 0xbd, 0x35, 0x90, 0xe2, 0x3c,
  0x39, 0xfa, 0xf4, 0x3c, 0xb5, 0x67, 0x43, 0xbe, 0x2e, 0xae, 0x6a, 0xbe,
  0x0c, 0x9f, 0xfa, 0x3d, 0x7b, 0x74, 0x91, 0xbe, 0x15, 0x61, 0x21, 0x3e,
  0x1d, 0x57, 0xfc, 0x3d, 0xd9, 0x7c, 0x65, 0xbd, 0x8c, 0xd7, 0xc9, 0x3d,
  0x15, 0x01, 0x5b, 0xbe, 0x25, 0x81, 0x25, 0x3e, 0x54, 0x22, 0xf0, 0xbc,
  0x75, 0x07, 0x38, 0x3e, 0xee, 0xa3, 0x9e, 0xb9, 0x39, 0x2b, 0x2c, 0xbe,
  0x2d, 0xb2, 0xff, 0x3c, 0x58, 0x1c, 0x39, 0xbd, 0x2f, 0x34, 0x35, 0xbe,
  0xfb, 0xba, 0xb5, 0xbd, 0x26, 0xd4, 0x72, 0xbe, 0xc4, 0x6f, 0x00, 0x3e,
  0xe5, 0x96, 0x08, 0x3e, 0x1e, 0x8c, 0x0d, 0xbe, 0x5d, 0x72, 0x07, 0xbe,
  0x1a, 0xa2, 0x3f, 0xbe, 0x59, 0x1f, 0x21, 0xbe, 0x5c, 0xe7, 0x89, 0x3d,
  0x52, 0x39, 0x9b, 0xbe, 0x82, 0xdb, 0xf0, 0xbc, 0x91, 0xaf, 0xb9, 0xbd,
  0x81, 0xac, 0x02, 0xbe, 0x87, 0x31, 0x77, 0x3d, 0xfe, 0x56, 0x1d, 0x3e,
  0x0d, 0xc4, 0xe2, 0xbd, 0xee, 0xc8, 0x66, 0xbe, 0x6d, 0x5c, 0x55, 0xbd,
  0x68, 0x84, 0xc2, 0xbd, 0x83, 0xba, 0x53, 0xbd, 0x76, 0x27, 0xb0, 0xbd,
  0xbc, 0xa0, 0x38, 0xbe, 0x73, 0x69, 0x21, 0xbe, 0x46, 0x80, 0x93, 0xbd,
  0x92, 0x0d, 0xe0, 0x3d, 0x2e, 0x7c, 0x4e, 0xbc, 0xef, 0x65, 0x45, 0xbe,
  0x49, 0x6e, 0x75, 0xbe, 0xa8, 0x23, 0x1f, 0xbe, 0x7e, 0xe0, 0x18, 0xbe,
  0x88, 0xa1, 0x19, 0xbd, 0x87, 0xbd, 0xee, 0x3b, 0xd6, 0x18, 0x04, 0xbe,
  0xed, 0xe4, 0x1f, 0x3e, 0x6e, 0xb0, 0x7a, 0xbe, 0xe7, 0x35, 0x24, 0xbe,
  0xbb, 0x32, 0x96, 0xbd, 0x7f, 0x0f, 0xf6, 0xbd, 0xce, 0x1e, 0x44, 0xbd,
  0x9b, 0xa7, 0x1e, 0xbe, 0x5f, 0xd6, 0x53, 0x3d, 0xfb, 0x50, 0x4e, 0xbe,
  0x57, 0xd8, 0x08, 0xbe, 0xf6, 0xf5, 0xb8, 0xbc, 0xb8, 0x65, 0x78, 0xbd,
  0x9b, 0x92, 0x58, 0xbe, 0x4c, 0xc6, 0xa9, 0x3d, 0x7e, 0x1f, 0x70, 0x3d,
  0x07, 0x34, 0x3b, 0x3d, 0xb8, 0xc1, 0xa0, 0x3d, 0xff, 0xa8, 0x4c, 0xbe,
  0xe3, 0xe8, 0x00, 0x3d, 0x8f, 0x8d, 0x02, 0xbe, 0x0e, 0x9e, 0x04, 0xbe,
  0xc9, 0xfd, 0x33, 0xbe, 0xba, 0xf0, 0x31, 0xbc, 0xbb, 0xd8, 0xda, 0xbd,
  0x3e, 0xba, 0x42, 0xbd, 0x80, 0x34, 0x65, 0xbe, 0x38, 0xca, 0xb9, 0xbd,
  0x1b, 0xdf, 0x1b, 0xbd, 0xa7, 0x40, 0x2e, 0xbe, 0x36, 0x57, 0x48, 0xbe,
  0x29, 0xbf, 0x13, 0xbd, 0x79, 0x66, 0x61, 0xbe, 0x34, 0xa7, 0x2a, 0xbc,
  0xac, 0xc1, 0x2c, 0xbe, 0x8b, 0x48, 0xe0, 0xbc, 0xce, 0xfd, 0x45, 0xbe,
  0xce, 0x3b, 0x18, 0xbd, 0x2f, 0x40, 0xcb, 0x3d, 0xc4, 0x56, 0x11, 0xbe,
  0xd5, 0x88, 0x5f, 0xbe, 0x40, 0x54, 0x3e, 0xbe, 0x80, 0xd2, 0x33, 0xbe,
  0x7a, 0x2a, 0x94, 0x3d, 0x83, 0x19, 0x79, 0xbe, 0x95, 0x4f, 0x40, 0xbe,
  0xa1, 0x97, 0x20, 0x3e, 0x05, 0x16, 0xc7, 0x3b, 0x56, 0x8b, 0x04, 0x3e,
  0x85, 0xd3, 0x81, 0x3e, 0xf0, 0x2c, 0x08, 0x3e, 0x8a, 0x21, 0xa5, 0x3e,
  0x95, 0xc6, 0x98, 0x3e, 0xec, 0x41, 0xb2, 0xbd, 0x82, 0xcb, 0x9c, 0xbd,
  0x78, 0x3a, 0x87, 0xbe, 0x96, 0x29, 0x28, 0xbe, 0x43, 0x23, 0x5f, 0x3c,
  0xf0, 0x27, 0xc4, 0xbe, 0x67, 0xd7, 0x4b, 0x3d, 0x52, 0x4c, 0x42, 0xbe,
  0x0e, 0xc1, 0x01, 0xbe, 0xd6, 0xb8, 0xe2, 0x3d, 0x93, 0xa8, 0x98, 0xbe,
  0x8f, 0xa2, 0xff, 0x3d, 0xd1, 0xd4, 0xa5, 0xbb, 0x52, 0xeb, 0xb2, 0xbd,
  0x07, 0x1f, 0x6e, 0x3e, 0x0b, 0x7f, 0x6b, 0xbd, 0x38, 0x5c, 0x72, 0xbd,
  0x0e, 0x2a, 0x93, 0x3d, 0xa2, 0xe7, 0xd3, 0xbd, 0x9c, 0x61, 0x99, 0x3d,
  0x53, 0xf8, 0xb9, 0xbd, 0xb6, 0x87, 0xe9, 0xbe, 0x06, 0x3d, 0x29, 0x3f,
  0x41, 0xb7, 0x3b, 0x3e, 0x8c, 0xbd, 0x64, 0xbd, 0x71, 0xdb, 0x90, 0x3e,
  0x3b, 0xae, 0x29, 0x3d, 0x3d, 0xf2, 0x52, 0xbe, 0xb4, 0xff, 0x3d, 0x3d,
  0xde, 0x99, 0xcd, 0xbc, 0x6d, 0x2e, 0x0b, 0x3f, 0x8c, 0x56, 0x97, 0xbe,
  0xc6, 0x06, 0xfa, 0xbd, 0x57, 0x2b, 0xb2, 0x3e, 0x7a, 0x54, 0x9a, 0x3d,
  0x29, 0x02, 0xd5, 0xbb, 0x72, 0x62, 0x95, 0xbd, 0xb5, 0x90, 0x85, 0xbe,
  0x37, 0xa0, 0xa5, 0x3e, 0x6f, 0x86, 0xa2, 0xbe, 0x9c, 0xa2, 0x11, 0x3c,
  0xa9, 0x62, 0x61, 0x3e, 0xad, 0xb0, 0x19, 0xbe, 0x94, 0x1b, 0x13, 0x3c,
  0x70, 0xe2, 0x19, 0x3e, 0x00, 0x62, 0x5b, 0x3e, 0xfa, 0x8c, 0x77, 0x3e,
  0xfe, 0xd8, 0xc3, 0x3d, 0xf2, 0xa9, 0x8e, 0xbe, 0xaa, 0x50, 0x0f, 0x3f,
  0xed, 0x66, 0x85, 0xbd, 0x52, 0x72, 0xb7, 0x3e, 0x25, 0xd3, 0x21, 0x3d,
  0x03, 0xf1, 0x52, 0xbe, 0x19, 0x7b, 0xe1, 0x3e, 0xb0, 0xf6, 0x42, 0xbe,
  0xe9, 0xf0, 0x89, 0x3d, 0x56, 0x60, 0x8f, 0x3c, 0xd5, 0xb6, 0x1a, 0xbb,
  0xb8, 0x4a, 0xa2, 0x3d, 0x65, 0x68, 0x60, 0x3e, 0xa8, 0x0c, 0x9b, 0x3e,
  0x91, 0x61, 0x90, 0x3e, 0x1f, 0x86, 0x1b, 0xbd, 0x95, 0xe0, 0x8a, 0xbd,
  0x8d, 0xa2, 0xee, 0x3e, 0x72, 0x6b, 0xda, 0xbd, 0x15, 0xb9, 0x2e, 0x3e,
  0xe6, 0xff, 0x92, 0xbd, 0xf6, 0x27, 0x73, 0xbe, 0x00, 0xa8, 0x83, 0xbd,
  0xbc, 0x8b, 0xbc, 0xbd, 0x8f, 0x6e, 0x73, 0x3e, 0xb3, 0x7d, 0x0c, 0x3d,
  0x2e, 0x8b, 0xdb, 0x3c, 0xb2, 0xf5, 0xbd, 0xbd, 0x25, 0xb5, 0xa9, 0xbe,
  0xa9, 0x26, 0x5e, 0xbe, 0xff, 0x85, 0xb1, 0x3e, 0xf5, 0x5d, 0x3a, 0xbe,
  0xcc, 0xf0, 0xbd, 0xbd, 0xe8, 0x04, 0xd0, 0x3d, 0xcd, 0xd3, 0x21, 0x3e,
  0x28, 0xf0, 0x95, 0xbd, 0xa5, 0x98, 0xba, 0xbd, 0x66, 0x42, 0x3b, 0xbe,
  0x10, 0x97, 0x33, 0x3e, 0x30, 0x94, 0xa7, 0xbe, 0xe6, 0xc4, 0x07, 0xbe,
  0x39, 0xf2, 0x4b, 0xbe, 0x2a, 0x3f, 0x08, 0x3e, 0xc0, 0xaa, 0x80, 0xbe,
  0xae, 0xe6, 0x83, 0xbe, 0x94, 0x03, 0x96, 0xbd, 0xb5, 0xf6, 0x83, 0xbe,
  0xbc, 0x9a, 0xdf, 0x3d, 0xa2, 0x30, 0xc7, 0xbd, 0xe7, 0x71, 0x2e, 0x3e,
  0x18, 0x6a, 0xaa, 0x3d, 0xec, 0xac, 0xa7, 0xbd, 0xd4, 0x92, 0x73, 0x3d,
  0xb9, 0x31, 0x74, 0xbd, 0x62, 0x3b, 0xdb, 0xbd, 0xe1, 0x5f, 0x47, 0xbd,
  0x84, 0xf3, 0x4c, 0x3e, 0x89, 0xd5, 0x80, 0x3e, 0x5d, 0x7c, 0x7e, 0x3e,
  0x35, 0xcb, 0x4a, 0xbe, 0x8b, 0xd3, 0x25, 0x3d, 0xbd, 0x40, 0x21, 0xbe,
  0x52, 0xbe, 0xa0, 0xbd, 0x15, 0xe4, 0x9f, 0x3e, 0x1f, 0xbb, 0xdf, 0x3a,
  0xe8, 0x51, 0xd5, 0xbd, 0xcb, 0x49, 0x1f, 0xbe, 0x48, 0x2a, 0x3d, 0xbc,
  0x29, 0xc9, 0x99, 0xbd, 0x42, 0xb6, 0x3d, 0x3e, 0xb5, 0xd0, 0x06, 0x3d,
  0x89, 0x54, 0xa2, 0xbe, 0x9c, 0x6b, 0xf4, 0xbc, 0x13, 0x77, 0x4c, 0x3a,
  0xfe, 0x32, 0x8b, 0x3e, 0xb8, 0x3f, 0xbf, 0xbd, 0x72, 0x14, 0xca, 0x3d,
  0xbd, 0xd5, 0x86, 0x3d, 0x2c, 0xe7, 0x2e, 0xbe, 0xc4, 0x51, 0xcb, 0x3e,
  0x21, 0x12, 0xaa, 0x3d, 0x12, 0x34, 0x20, 0xbe, 0xd9, 0xff, 0xd1, 0xbe,
  0x9b, 0xe2, 0xe2, 0x3d, 0xe1, 0x27, 0xd5, 0xbd, 0xf2, 0xcf, 0x06, 0x3f,
  0xb6, 0xee, 0xb3, 0xbd, 0x43, 0xe1, 0x8e, 0xbd, 0x9f, 0x75, 0x90, 0x3e,
  0x86, 0x9b, 0x82, 0xbd, 0x4b, 0x12, 0x17, 0x3e, 0x95, 0xb2, 0x23, 0xbe,
  0x4f, 0x84, 0x5e, 0x3e, 0xea, 0x6b, 0x1a, 0x3e, 0x97, 0x30, 0xe8, 0xbd,
  0x88, 0xb4, 0x9b, 0x3e, 0x48, 0x52, 0xe5, 0x3e, 0xff, 0x51, 0xf0, 0xbd,
  0x1f, 0x77, 0xba, 0xbd, 0x07, 0xf9, 0x71, 0x3e, 0x1c, 0x72, 0xa3, 0xbb,
  0x89, 0xad, 0xd4, 0x3e, 0xbc, 0x4a, 0xb9, 0xbb, 0x50, 0x61, 0xdf, 0x3d,
  0x62, 0xda, 0x03, 0x3e, 0x4d, 0xb0, 0xd1, 0x3d, 0x93, 0xce, 0x50, 0x3d,
  0x03, 0xdf, 0x30, 0x3c, 0xea, 0x11, 0x91, 0x3e, 0xc5, 0xcc, 0xc3, 0x3d,
  0x6a, 0x50, 0x09, 0xbe, 0xbe, 0x81, 0x54, 0x3e, 0x0b, 0x9a, 0x1f, 0x3f,
  0x3a, 0x70, 0xce, 0x3d, 0x80, 0x9b, 0xeb, 0xbc, 0x60, 0x96, 0xa7, 0xbd,
  0x0f, 0x87, 0x12, 0xbd, 0x7c, 0x3d, 0xb5, 0x3d, 0xa6, 0xad, 0xb3, 0xbd,
  0x97, 0xf4, 0x5c, 0x3e, 0x6e, 0xd8, 0xcb, 0xbd, 0xce, 0x81, 0x21, 0xbe,
  0x6b, 0x1d, 0x1a, 0x3e, 0x02, 0x14, 0x2e, 0xbe, 0x75, 0x3c, 0x70, 0xbd,
  0xf7, 0xb9, 0x68, 0x3e, 0xd7, 0x07, 0x63, 0xbe, 0xd5, 0xcb, 0x45, 0x3d,
  0xbb, 0x9c, 0x5b, 0x3e, 0x89, 0xab, 0x0c, 0x3d, 0x95, 0x50, 0x8c, 0xbd,
  0x94, 0xd2, 0xeb, 0x3d, 0xed, 0x56, 0x95, 0xbe, 0xec, 0xb8, 0x6c, 0x3e,
  0x8d, 0x87, 0x77, 0xbd, 0xa2, 0x73, 0xef, 0xbd, 0x31, 0xd1, 0x94, 0x3e,
  0x08, 0xa7, 0x52, 0xbe, 0xff, 0xaa, 0xaf, 0x3e, 0xf3, 0x15, 0x2f, 0xbe,
  0xc0, 0xec, 0x4b, 0xbd, 0xad, 0x51, 0x90, 0xbd, 0x07, 0x6d, 0xf0, 0x3d,
  0x21, 0x43, 0xe0, 0x3e, 0xd2, 0x1c, 0x9a, 0x3d, 0xe2, 0x68, 0x15, 0xbe,
  0x4e, 0x66, 0x08, 0xbe, 0xa1, 0x1d, 0x52, 0xbe, 0xd6, 0x8a, 0x2a, 0xbe,
  0x08, 0xf0, 0x2d, 0x3c, 0x47, 0xa9, 0x61, 0xbe, 0x36, 0x53, 0xa0, 0x3d,
  0x9d, 0x89, 0x65, 0x3e, 0xa7, 0xd0, 0x64, 0xbd, 0x56, 0x5f, 0x85, 0x3e,
  0xba, 0x85, 0x9c, 0xbe, 0xc7, 0x04, 0x59, 0x3e, 0x2c, 0x72, 0x27, 0xbe,
  0x6f, 0xe9, 0xfd, 0xbd, 0x5a, 0x26, 0xc7, 0x3e, 0x02, 0x17, 0x97, 0x3d,
  0x77, 0x76, 0xf8, 0xbc, 0xee, 0x1e, 0x52, 0xbd, 0x9b, 0xb1, 0x04, 0x3e,
  0xc9, 0x86, 0x9c, 0xbd, 0xeb, 0x17, 0x0b, 0x3e, 0xc8, 0xa3, 0x05, 0xbd,
  0xae, 0xf4, 0xc1, 0x3e, 0x06, 0x71, 0xb9, 0xbe, 0x05, 0x2f, 0x0c, 0xbd,
  0x40, 0x9b, 0x03, 0xbe, 0xe9, 0xa2, 0x46, 0xbc, 0xfd, 0xb8, 0x6d, 0xbe,
  0xf5, 0x6a, 0x32, 0x3d, 0x4b, 0xba, 0xb0, 0xbe, 0xaf, 0x05, 0x0d, 0xbd,
  0x61, 0xee, 0xdd, 0x3d, 0x58, 0x85, 0x31, 0x3d, 0xbc, 0x05, 0x47, 0x3e,
  0x48, 0x1a, 0x33, 0x3e, 0xcf, 0xe3, 0x75, 0xbe, 0x35, 0x4b, 0x60, 0x3e,
  0xda, 0xb1, 0xc7, 0x3d, 0x60, 0xf8, 0x93, 0x3e, 0x2a, 0x8c, 0xac, 0x3d,
  0x97, 0x13, 0xb1, 0x3d, 0x89, 0x93, 0xc4, 0x3d, 0xf9, 0xdc, 0x8e, 0xbd,
  0x70, 0x0a, 0xcd, 0x3d, 0xb6, 0x37, 0x1a, 0x3e, 0x7a, 0xd4, 0xff, 0x3d,
  0xbf, 0xad, 0x29, 0xbe, 0xda, 0x14, 0xc8, 0xbd, 0x1a, 0xd2, 0x40, 0x3e,
  0xbc, 0x05, 0x09, 0x3d, 0x4c, 0x35, 0x96, 0x3e, 0xa8, 0x16, 0x6c, 0xbc,
  0xb9, 0x87, 0xad, 0xbe, 0x40, 0xdb, 0x90, 0xbe, 0x7a, 0xe6, 0xce, 0x3d,
  0x79, 0xdf, 0x20, 0xbd, 0xf8, 0x17, 0x70, 0xbe, 0x23, 0x14, 0xaa, 0xbd,
  0x9e, 0x67, 0x11, 0xbb, 0x63, 0xa0, 0xa5, 0x3e, 0xf6, 0x50, 0x12, 0xbe,
  0xf9, 0x66, 0xef, 0xbd, 0x1d, 0x7d, 0x54, 0x3e, 0xcd, 0x9a, 0x8e, 0xbe,
  0x92, 0xa8, 0x66, 0x3e, 0x5d, 0x5c, 0x83, 0xbe, 0x97, 0x44, 0x23, 0xbe,
  0x6f, 0x40, 0x00, 0x3e, 0xb3, 0x7c, 0x3d, 0xbe, 0xe1, 0x19, 0x8c, 0xbe,
  0x86, 0x24, 0xcd, 0xbe, 0xbd, 0xea, 0x99, 0x3c, 0xe4, 0x09, 0x06, 0xbe,
  0x74, 0x12, 0x0f, 0xbe, 0x11, 0x69, 0x30, 0xbe, 0x9c, 0x1e, 0x33, 0x3e,
  0x66, 0x2a, 0x92, 0xbe, 0x29, 0xdc, 0x8c, 0xbe, 0x85, 0x1f, 0x11, 0xbc,
  0x32, 0x8a, 0x01, 0xbf, 0xf2, 0xe9, 0xb6, 0xbe, 0xf4, 0xd0, 0xb4, 0xbe,
  0x0d, 0xb9, 0x51, 0x3e, 0x88, 0x5e, 0x9b, 0xbc, 0x51, 0x61, 0x95, 0xbe,
  0x29, 0x3f, 0x70, 0xbe, 0xb1, 0x87, 0x57, 0xbe, 0xdc, 0xc1, 0x1b, 0x3e,
  0xd0, 0xed, 0x3b, 0x3d, 0xa8, 0xe0, 0x32, 0xbe, 0x82, 0xd3, 0x2e, 0xbe,
  0x39, 0x77, 0xf8, 0xbc, 0xad, 0x67, 0xa4, 0xbe, 0x52, 0x5e, 0xbc, 0xbd,
  0xdb, 0x69, 0x2d, 0xbd, 0xaf, 0xec, 0x99, 0xbe, 0xc5, 0xde, 0x7e, 0xbe,
  0x6c, 0xd7, 0xb9, 0xbd, 0xf4, 0x44, 0x2a, 0x3e, 0xa3, 0x36, 0x51, 0xbd,
  0xe9, 0xa4, 0x8e, 0x3e, 0x87, 0xbf, 0x75, 0xbd, 0x17, 0x94, 0x13, 0xba,
  0xc8, 0x0e, 0x8f, 0x3d, 0x6c, 0x24, 0x7a, 0x3e, 0xe4, 0x03, 0xc0, 0xbd,
  0x90, 0x7d, 0xf6, 0xbd, 0xb0, 0xba, 0x92, 0x3d, 0x5c, 0x66, 0x0f, 0xbe,
  0xb5, 0xcc, 0x3e, 0xbe, 0x1c, 0x81, 0x4b, 0x3c, 0x7a, 0xcc, 0x1d, 0xbd,
  0x35, 0xa8, 0x4d, 0xbe, 0xc1, 0x6d, 0xab, 0xbd, 0x02, 0xa8, 0xff, 0x3d,
  0xcd, 0x68, 0xc7, 0xbd, 0x91, 0x47, 0x33, 0x3d, 0x94, 0xa5, 0x70, 0xbd,
  0x70, 0x8a, 0x14, 0x3e, 0xf5, 0xa8, 0x9e, 0xbc, 0x4e, 0x5a, 0xc9, 0x3e,
  0x27, 0x88, 0xbb, 0xbd, 0x57, 0xe3, 0xa8, 0xbc, 0x0c, 0x4e, 0x4d, 0xbe,
  0x6a, 0x3f, 0x58, 0xbd, 0x65, 0x63, 0x82, 0xbe, 0x77, 0x2e, 0x9f, 0xbe,
  0xde, 0x29, 0x80, 0x3d, 0xc4, 0x09, 0x1a, 0x3e, 0x37, 0x52, 0x73, 0x3c,
  0x1b, 0xe2, 0x8a, 0x3d, 0x32, 0x96, 0xbb, 0xbd, 0x45, 0xf2, 0x89, 0xbe,
  0x53, 0x0e, 0x05, 0x3e, 0x56, 0x4a, 0xb6, 0xbe, 0xba, 0xff, 0xfd, 0x3c,
  0xd4, 0x02, 0x8a, 0xbd, 0x30, 0x99, 0x05, 0x3d, 0x0f, 0x8c, 0x5b, 0xbe,
  0x44, 0x6b, 0x2e, 0x3e, 0xc3, 0x77, 0xa9, 0xbd, 0x23, 0x64, 0xcd, 0x3e,
  0x11, 0xa0, 0x47, 0x3d, 0x72, 0xb0, 0xaf, 0xbd, 0xfd, 0x92, 0x16, 0x3d,
  0x09, 0x69, 0xe1, 0xbe, 0xf2, 0x6c, 0x06, 0xbe, 0x31, 0xf6, 0x24, 0xbe,
  0xa1, 0xf3, 0x0e, 0xbe, 0xbc, 0x7d, 0x43, 0x3f, 0x6b, 0xc1, 0x97, 0xbe,
  0x03, 0x92, 0x7a, 0xbe, 0xc0, 0x8f, 0x0a, 0x3e, 0xba, 0xa2, 0xeb, 0x3a,
  0x7b, 0x8b, 0x66, 0xbe, 0x04, 0xea, 0x01, 0xbe, 0x65, 0x07, 0x84, 0xbd,
  0xcf, 0x31, 0xc6, 0x3e, 0xe0, 0xc0, 0xf3, 0xbb, 0xc5, 0x3c, 0x9d, 0xbe,
  0x7f, 0x5d, 0x10, 0x3e, 0x2c, 0x9c, 0xd7, 0xbd, 0x0e, 0x82, 0x03, 0x3e,
  0xac, 0x5e, 0xab, 0xbe, 0xa7, 0x3d, 0x93, 0xbe, 0x62, 0x49, 0x46, 0x3f,
  0x97, 0x8c, 0xdd, 0x3d, 0xa1, 0xef, 0x5d, 0xbe, 0x68, 0x42, 0xa3, 0x3d,
  0xe2, 0xd7, 0x57, 0xbd, 0xec, 0x49, 0x99, 0xbe, 0x0a, 0x15, 0xc9, 0x3d,
  0x33, 0xea, 0x97, 0xbd, 0x6b, 0xf0, 0x9c, 0x3d, 0xf1, 0x92, 0xfd, 0xbd,
  0xa3, 0xee, 0x36, 0xbe, 0x47, 0xf4, 0xbb, 0x3e, 0xa1, 0x04, 0xc3, 0xbc,
  0xb8, 0xba, 0xc8, 0xbd, 0x63, 0xbf, 0x40, 0xbe, 0xb2, 0xd3, 0x35, 0xbe,
  0x1e, 0x84, 0xdc, 0x3e, 0xd1, 0x70, 0xec, 0xbc, 0x3e, 0xc3, 0x1b, 0xbe,
  0xfd, 0x7d, 0x5b, 0x3c, 0xb6, 0xf1, 0x34, 0xbe, 0xfa, 0x1c, 0x59, 0xbe,
  0x73, 0x7f, 0x8c, 0x3d, 0xc4, 0x98, 0xcd, 0x3d, 0x05, 0xa2, 0xfa, 0x3d,
  0x75, 0x07, 0xc6, 0x3d, 0x0b, 0xd9, 0xea, 0xbc, 0x93, 0x28, 0xeb, 0x3e,
  0xa6, 0xcd, 0x30, 0xbe, 0x04, 0xcd, 0x13, 0xbe, 0x5a, 0xf7, 0x91, 0x3d,
  0x6d, 0x32, 0x2e, 0xbe, 0x05, 0xbd, 0xf6, 0x3e, 0x6f, 0x41, 0x33, 0xbe,
  0xdc, 0xa3, 0x18, 0x3e, 0x46, 0x8a, 0x17, 0x3e, 0x48, 0xf0, 0x17, 0xbe,
  0x6a, 0xa2, 0x05, 0x3e, 0xd8, 0xd2, 0xbd, 0x3e, 0x13, 0xad, 0x8f, 0x3e,
  0x3c, 0xcd, 0x35, 0x3e, 0x99, 0xc5, 0xe1, 0x39, 0x79, 0x29, 0x41, 0xbe,
  0xd7, 0xc5, 0x59, 0x3e, 0x7d, 0x10, 0x96, 0xbe, 0xf9, 0xa0, 0xaf, 0x3d,
  0xa0, 0x0f, 0x0c, 0xbe, 0x3f, 0x6d, 0x89, 0xbe, 0xdd, 0x37, 0x93, 0x3e,
  0x3a, 0x8f, 0xc2, 0xbd, 0xd2, 0x4e, 0xae, 0x3d, 0x63, 0x9b, 0xec, 0xbd,
  0x81, 0xa7, 0xb2, 0xbb, 0x21, 0x41, 0xe1, 0xbd, 0xcc, 0x7e, 0x85, 0x3c,
  0xd2, 0xb3, 0x40, 0xbe, 0x4c, 0xe4, 0xcf, 0x3e, 0xb1, 0x1f, 0x20, 0x3e,
  0x74, 0xc6, 0x89, 0xbd, 0xae, 0x85, 0x02, 0xbe, 0x86, 0x2f, 0xca, 0xbd,
  0x67, 0x30, 0x1f, 0xbe, 0xf5, 0x45, 0xc4, 0xbe, 0xab, 0xa3, 0x60, 0xbe,
  0x1d, 0x7a, 0x8f, 0x3e, 0xa0, 0xc0, 0x6f, 0xbe, 0x13, 0x8a, 0x8b, 0xbd,
  0x07, 0x6d, 0x4a, 0xbe, 0xa4, 0x8d, 0xf6, 0xbc, 0xa2, 0x6a, 0xc1, 0xbe,
  0x60, 0x1e, 0xb1, 0xbe, 0x4c, 0x97, 0xf3, 0xbd, 0xa7, 0x8f, 0x97, 0xbe,
  0x94, 0x61, 0x46, 0x3b, 0x60, 0xbc, 0xa6, 0xbd, 0x1f, 0x01, 0x38, 0x3d,
  0x22, 0x44, 0x10, 0x3d, 0xea, 0x91, 0x2b, 0xbe, 0x89, 0xae, 0x82, 0xbe,
  0xdd, 0xb1, 0x20, 0xbd, 0xcc, 0x46, 0xa4, 0xbd, 0xea, 0x04, 0x62, 0x3d,
  0xbb, 0x75, 0x86, 0x3e, 0x61, 0x61, 0xd1, 0xbd, 0xec, 0xfe, 0x02, 0x3e,
  0x5c, 0x3e, 0x4c, 0xbd, 0xaf, 0xff, 0x1c, 0xbe, 0x04, 0xba, 0x64, 0xbe,
  0x25, 0xd4, 0xae, 0xbe, 0xd2, 0x95, 0x76, 0x3e, 0xf3, 0x8a, 0xa2, 0xbc,
  0x45, 0xe9, 0x96, 0xbd, 0x21, 0xca, 0x27, 0x3d, 0xff, 0x7f, 0xd4, 0x3c,
  0x0b, 0x25, 0x57, 0xbc, 0xb3, 0xae, 0xe7, 0x3e, 0xdd, 0x63, 0xaa, 0xbd,
  0xd0, 0xe1, 0xf3, 0x3d, 0x56, 0xd9, 0x9a, 0x3e, 0x71, 0x2c, 0x7b, 0xbe,
  0xd5, 0xc8, 0xc9, 0x3d, 0xf4, 0x28, 0x39, 0xbc, 0xe8, 0x7e, 0x9b, 0x3d,
  0x91, 0x7e, 0xb2, 0xbd, 0xf5, 0xb8, 0xe8, 0xbe, 0xe6, 0x35, 0x9f, 0x3d,
  0xb5, 0xbb, 0x58, 0x3d, 0xe6, 0xb8, 0x3e, 0xbe, 0xbb, 0x1a, 0x36, 0x3d,
  0x00, 0x6e, 0xb0, 0x3d, 0x45, 0x14, 0x6e, 0x3d, 0x59, 0x65, 0xb5, 0x3e,
  0x36, 0x6b, 0x9b, 0xbe, 0x97, 0x1e, 0x2d, 0x3e, 0x9c, 0xaa, 0x7f, 0x3e,
  0x7a, 0x28, 0x38, 0xbe, 0x42, 0x4b, 0x8c, 0x3b, 0x52, 0x51, 0x7e, 0x3d,
  0x2d, 0xe4, 0xc9, 0xbc, 0x9e, 0x65, 0x4d, 0x3c, 0xb3, 0x11, 0x41, 0xbe,
  0x39, 0x4b, 0x8d, 0x3e, 0xcc, 0xc4, 0x27, 0x3e, 0x9d, 0x3d, 0x8d, 0xbe,
  0x39, 0xce, 0x0e, 0x3c, 0xa3, 0xf3, 0x24, 0x3e, 0x1b, 0xca, 0x94, 0xbc,
  0x5a, 0x38, 0x21, 0x3e, 0xcb, 0x76, 0x49, 0xbe, 0x97, 0x15, 0x9c, 0x3e,
  0xfd, 0x6b, 0x55, 0x3e, 0x80, 0x57, 0x31, 0xbe, 0x7c, 0x0a, 0x60, 0xbc,
  0xf7, 0x44, 0xa2, 0xbc, 0xd8, 0x19, 0xe1, 0xbc, 0x5c, 0x96, 0xe6, 0x3b,
  0x61, 0x2a, 0x7d, 0xbd, 0xb0, 0x2c, 0x32, 0x3e, 0xa0, 0xb6, 0x52, 0x3e,
  0x29, 0xae, 0x5e, 0xbe, 0x6f, 0xbb, 0xee, 0x3b, 0x6c, 0xa4, 0xe7, 0x3c,
  0xff, 0xbb, 0x05, 0xbc, 0xbf, 0x1a, 0xb1, 0x3e, 0x9d, 0xda, 0x42, 0xbe,
  0x0f, 0x8c, 0x6d, 0x3d, 0x52, 0x82, 0x63, 0x3d, 0x1b, 0xd1, 0xa4, 0xbe,
  0x58, 0x30, 0xd6, 0x3c, 0x77, 0x96, 0x6a, 0x3d, 0xfd, 0xb5, 0x16, 0xbd,
  0x15, 0x6d, 0xf0, 0xbd, 0xec, 0xee, 0xa2, 0xbe, 0xdd, 0xf4, 0x88, 0x3e,
  0x5c, 0x8e, 0x4b, 0xbc, 0x39, 0x47, 0xa5, 0xba, 0x66, 0x0f, 0xa2, 0x3d,
  0xdd, 0x68, 0x1c, 0xbd, 0xbe, 0x2c, 0x00, 0xbd, 0xc4, 0xd4, 0x3f, 0x3e,
  0x0f, 0xc8, 0x8c, 0xbe, 0x3e, 0xf1, 0x0a, 0xbe, 0x73, 0x88, 0x99, 0xbd,
  0xd4, 0x28, 0x9d, 0xbe, 0x6a, 0x67, 0x48, 0x3e, 0xaa, 0xaa, 0x6d, 0x3b,
  0x22, 0xd8, 0x12, 0xbe, 0xd3, 0xb8, 0xbd, 0xbd, 0xb4, 0x54, 0x1c, 0xbe,
  0x6b, 0xf1, 0x47, 0x3d, 0x67, 0xe9, 0x87, 0x3d, 0xce, 0x35, 0x64, 0xbe,
  0x43, 0x14, 0x0f, 0xbd, 0xac, 0x1c, 0xae, 0xbe, 0xd5, 0x6b, 0x4d, 0xbc,
  0x60, 0x4e, 0x78, 0x3c, 0x9c, 0x06, 0x20, 0xbe, 0xd1, 0x92, 0x70, 0x3d,
  0x4c, 0xe4, 0xb2, 0x3e, 0x01, 0xf7, 0x21, 0xbe, 0xb1, 0xde, 0x80, 0x3e,
  0x20, 0x1d, 0x8f, 0xbc, 0xea, 0x1b, 0x1b, 0xbd, 0xbc, 0x9d, 0xbc, 0xbd,
  0x99, 0x69, 0x2a, 0xbe, 0x13, 0xe9, 0xca, 0x3e, 0xf1, 0x1a, 0xb2, 0x3c,
  0xa2, 0x18, 0x10, 0xbe, 0xa0, 0xee, 0x69, 0xbd, 0xc7, 0xfc, 0x2e, 0x3c,
  0xf5, 0xf4, 0xa4, 0x3b, 0x84, 0xb7, 0x22, 0xbe, 0x2d, 0xaf, 0x2c, 0xbe,
  0xc0, 0xce, 0x50, 0xbe, 0x3c, 0xa5, 0x64, 0xbe, 0xda, 0x3c, 0x89, 0xbc,
  0x2f, 0xaa, 0x6f, 0x3d, 0xcf, 0xd7, 0x0f, 0xbd, 0x55, 0xf1, 0xfd, 0x3a,
  0x39, 0xa3, 0x97, 0xbd, 0xed, 0x33, 0x10, 0xbe, 0x77, 0x8b, 0x5a, 0xbc,
  0x32, 0xcb, 0x82, 0xbd, 0xcf, 0x63, 0x43, 0xbe, 0xb1, 0xe3, 0x6d, 0xbe,
  0x9e, 0x29, 0x71, 0x3d, 0xbf, 0x6d, 0x94, 0xbe, 0xa9, 0x9b, 0x07, 0x3d,
  0x8e, 0xc4, 0x08, 0x3d, 0x10, 0xf4, 0x85, 0xbd, 0x2a, 0xab, 0x16, 0x3e,
  0x76, 0xdc, 0x63, 0x3d, 0xa7, 0x53, 0xb4, 0xbd, 0x09, 0x68, 0x2b, 0xbe,
  0x61, 0x67, 0xf5, 0x3d, 0xa9, 0x37, 0x2c, 0xbe, 0x8a, 0xbf, 0x25, 0x3e,
  0x98, 0xee, 0xbd, 0x3c, 0x5e, 0x28, 0x56, 0x3d, 0xd1, 0x9e, 0xc3, 0x3d,
  0x92, 0xa8, 0x3e, 0xbe, 0x5d, 0x57, 0x6a, 0xbe, 0xed, 0xa8, 0x26, 0xbe,
  0xd4, 0x10, 0x92, 0x3d, 0x0f, 0xf6, 0x6d, 0x3d, 0xde, 0x67, 0xa4, 0xbb,
  0x16, 0xf2, 0xb3, 0xbd, 0x46, 0xbe, 0x20, 0xbe, 0x77, 0xa0, 0x67, 0xbd,
  0x2e, 0x31, 0x88, 0xbd, 0xc0, 0xcd, 0x18, 0xbd, 0x29, 0xa0, 0x14, 0x3d,
  0xb8, 0x67, 0xe4, 0xbb, 0x92, 0xa8, 0x85, 0xbd, 0x6b, 0x29, 0x3f, 0xbc,
  0xab, 0x7b, 0x1a, 0x3e, 0x0f, 0x66, 0x5b, 0xbe, 0x24, 0x84, 0x14, 0x3e,
  0x4a, 0x63, 0x31, 0xbe, 0xb1, 0x5a, 0x85, 0xbc, 0xfc, 0xea, 0xe7, 0xbd,
  0xb2, 0x79, 0x6a, 0xbe, 0x72, 0x49, 0x5b, 0xbe, 0xbc, 0x14, 0x9c, 0xbd,
  0x9f, 0x5b, 0x5b, 0xbe, 0x06, 0x79, 0x98, 0x3d, 0xa8, 0x34, 0x1b, 0xbe,
  0x70, 0xa7, 0x29, 0xbe, 0x67, 0x14, 0xea, 0xbd, 0x2e, 0x2c, 0x08, 0x3d,
  0xe5, 0x89, 0x94, 0xbc, 0x76, 0xec, 0xea, 0xbd, 0x35, 0x86, 0xb8, 0xbd,
  0x2a, 0x67, 0xec, 0x3d, 0x11, 0x68, 0x16, 0x3d, 0xc4, 0xed, 0xe8, 0x3c,
  0x37, 0x7a, 0x88, 0xbe, 0x8e, 0x56, 0x3a, 0xbe, 0xe0, 0xe2, 0xbd, 0xbd,
  0x5b, 0x35, 0x00, 0x3c, 0x02, 0xe5, 0x1c, 0x3d, 0xc4, 0x28, 0x9e, 0xbe,
  0x47, 0xfd, 0x59, 0xbd, 0x49, 0xd8, 0x65, 0xbe, 0xe5, 0xb7, 0xa1, 0x3d,
  0xf8, 0x05, 0x90, 0x3c, 0x9c, 0xaa, 0x03, 0xbc, 0x95, 0x4c, 0x21, 0xbe,
  0x34, 0x95, 0x00, 0xbd, 0x95, 0x48, 0x14, 0x3e, 0x3d, 0x50, 0xb4, 0xbd,
  0x07, 0x46, 0xff, 0xbd, 0x19, 0x52, 0x45, 0x3d, 0x2d, 0x2b, 0x25, 0xbc,
  0xd5, 0x6f, 0xa3, 0xbd, 0x7a, 0x81, 0x70, 0xbe, 0x8a, 0xb4, 0xcb, 0xbd,
  0x22, 0xf0, 0x53, 0xbb, 0x31, 0xf8, 0x8f, 0x3d, 0x18, 0x67, 0x73, 0xbe,
  0x71, 0x73, 0xd2, 0xbd, 0x86, 0x3c, 0xaf, 0xba, 0x39, 0x0e, 0x8a, 0xbe,
  0xa3, 0x75, 0xb3, 0xbd, 0xc8, 0xed, 0x1f, 0xbe, 0xa4, 0x7e, 0x23, 0xbd,
  0xc0, 0x04, 0x05, 0xbe, 0x1f, 0xa9, 0xc2, 0x3c, 0xd8, 0x86, 0x85, 0xbe,
  0x81, 0xaf, 0x5c, 0xbd, 0x8d, 0x96, 0x19, 0xbe, 0x36, 0x9d, 0xa8, 0x3d,
  0xb9, 0x82, 0x0d, 0xbe, 0xad, 0xc4, 0x87, 0xbe, 0x9f, 0x8a, 0x9b, 0xbc,
  0xd8, 0xb9, 0x86, 0xbd, 0x3c, 0x80, 0xd4, 0xbc, 0xef, 0x8b, 0xa4, 0x3d,
  0xa7, 0x1d, 0x83, 0xbe, 0x02, 0x73, 0x8f, 0x3d, 0x14, 0xf0, 0x9b, 0xbe,
  0x05, 0xbe, 0x0e, 0xbe, 0x31, 0xfd, 0x2f, 0xbc, 0x0e, 0x32, 0xd8, 0xbe,
  0xd8, 0x1e, 0xf4, 0x3d, 0x71, 0x89, 0x98, 0x3d, 0x69, 0x75, 0x57, 0xbe,
  0x4e, 0xa7, 0x03, 0xbf, 0x3c, 0x21, 0xce, 0xbd, 0x47, 0x4f, 0xeb, 0xbe,
  0x47, 0xa4, 0xbd, 0xbe, 0x86, 0x25, 0x1d, 0xbf, 0x38, 0xdd, 0xc5, 0xbe,
  0x71, 0xb3, 0x8d, 0xbd, 0x20, 0x27, 0xcd, 0xbd, 0xed, 0xea, 0xac, 0xbe,
  0xd8, 0x08, 0x37, 0xbe, 0xce, 0xf1, 0xb2, 0xbe, 0xe9, 0x48, 0x32, 0x3d,
  0x29, 0xca, 0xef, 0x3b, 0x63, 0xe7, 0x00, 0x3f, 0x56, 0x4a, 0x1a, 0x3d,
  0xe1, 0xc5, 0xc1, 0xbd, 0x06, 0x70, 0x91, 0x3e, 0xe6, 0x34, 0xfc, 0x3c,
  0xed, 0x18, 0x93, 0xbe, 0x32, 0xff, 0x65, 0xbc, 0xbd, 0x50, 0x9e, 0xbe,
  0xe3, 0x4d, 0x15, 0xbf, 0x52, 0x11, 0x87, 0xbe, 0x5b, 0x39, 0xe9, 0x3d,
  0xfc, 0x5a, 0xd2, 0xbd, 0x19, 0x4c, 0x08, 0xbf, 0x33, 0x5b, 0xcb, 0x3d,
  0x96, 0x77, 0x8e, 0x3d, 0x93, 0x20, 0x1f, 0xbe, 0x35, 0x13, 0x0e, 0x3e,
  0x7f, 0x06, 0x50, 0xbe, 0x7e, 0x02, 0xd7, 0x3d, 0xd0, 0xb4, 0x8a, 0x3e,
  0x76, 0xb6, 0x7c, 0xbd, 0x5a, 0xb3, 0xa1, 0x3d, 0x1b, 0xd7, 0x06, 0x3e,
  0xf5, 0xa6, 0x90, 0x3e, 0x88, 0x6b, 0x59, 0x3d, 0x7c, 0xdd, 0x92, 0x3c,
  0x06, 0x90, 0x98, 0xbd, 0xbb, 0xf6, 0x52, 0x3e, 0x2a, 0x36, 0x22, 0xbf,
  0x26, 0x96, 0x84, 0xbe, 0x67, 0x9e, 0xfb, 0x3d, 0x77, 0x6a, 0x90, 0xbd,
  0x91, 0x18, 0xe9, 0x3d, 0x21, 0x12, 0x55, 0xbe, 0x9a, 0x6f, 0xdc, 0xbd,
  0x39, 0xfc, 0x2d, 0x3e, 0x6c, 0x55, 0x01, 0xbe, 0x2c, 0x21, 0xdb, 0x3d,
  0xa1, 0xe8, 0xd9, 0x3d, 0x6b, 0xb0, 0x94, 0x3d, 0x15, 0xfe, 0xbb, 0x3e,
  0x85, 0x11, 0x7e, 0x3b, 0x9f, 0x8d, 0x82, 0xbd, 0x8c, 0xd8, 0x22, 0x3e,
  0xde, 0x03, 0xc5, 0xbe, 0x1e, 0x1d, 0xe7, 0xbd, 0x41, 0xf3, 0x92, 0x3d,
  0x87, 0x1a, 0xa8, 0xbe, 0x5e, 0xbe, 0xad, 0x3e, 0xec, 0x98, 0xf8, 0x3c,
  0x0b, 0x90, 0x04, 0x3d, 0xb6, 0x52, 0x0f, 0x3e, 0x53, 0xb0, 0xa8, 0xbd,
  0xda, 0xac, 0xad, 0x3d, 0xe2, 0x4c, 0x49, 0x3e, 0x4c, 0xad, 0xdf, 0x3c,
  0xa7, 0xfb, 0x99, 0x3e, 0xdd, 0x40, 0x34, 0xbc, 0xf4, 0x82, 0x16, 0xbe,
  0xc4, 0x18, 0x07, 0x3e, 0xf7, 0xf1, 0xd1, 0xbe, 0xc9, 0x18, 0x36, 0xbe,
  0x8a, 0xd0, 0xd5, 0xbd, 0x0b, 0xde, 0x9c, 0xbe, 0x24, 0xde, 0x2a, 0x3e,
  0xe2, 0x8f, 0x34, 0xbe, 0x02, 0x31, 0x62, 0xbe, 0xa3, 0xda, 0x05, 0x3d,
  0xcb, 0x22, 0x3d, 0xbe, 0x39, 0x9e, 0x3c, 0x3d, 0xf7, 0x36, 0xb3, 0x3e,
  0x90, 0xbe, 0x07, 0x3e, 0xc0, 0x77, 0x9d, 0x3e, 0x99, 0xe0, 0x8c, 0xbe,
  0x08, 0xb9, 0x6b, 0xbe, 0x1a, 0x99, 0xb2, 0xbd, 0xa5, 0xde, 0x88, 0x3d,
  0x8e, 0xf0, 0xac, 0xbc, 0x0f, 0x6f, 0x2e, 0xbe, 0xc5, 0x59, 0xde, 0xbd,
  0x30, 0xcf, 0xa5, 0x3e, 0x28, 0x10, 0x71, 0xbe, 0xf3, 0xaf, 0xce, 0xbe,
  0xcc, 0x84, 0xc5, 0xbd, 0xaf, 0x97, 0xb9, 0xbe, 0xb7, 0x9e, 0x16, 0x3c,
  0x6b, 0xd9, 0xbe, 0x3d, 0xe5, 0x67, 0xb0, 0xbb, 0x06, 0xf9, 0x23, 0x3e,
  0x1e, 0x31, 0xb2, 0xbe, 0x68, 0x19, 0x27, 0xbd, 0x38, 0xb3, 0x12, 0x3d,
  0x0f, 0xc0, 0xe0, 0x3c, 0x3e, 0x00, 0xd8, 0xbd, 0xd2, 0xcf, 0x3a, 0xbe,
  0x46, 0xaa, 0x34, 0xbd, 0xa7, 0xc6, 0x04, 0xbe, 0x4a, 0xa8, 0x87, 0xbd,
  0x08, 0x8b, 0x06, 0xbe, 0xf5, 0x98, 0xd5, 0x3d, 0xd7, 0xf6, 0x9e, 0xbd,
  0x2b, 0xd7, 0xd9, 0xbd, 0xb9, 0xea, 0xda, 0xbd, 0x49, 0x79, 0x01, 0x3d,
  0xe1, 0x77, 0xd3, 0x3c, 0xd6, 0xc2, 0x49, 0x3d, 0x3e, 0x61, 0x82, 0xbd,
  0x9c, 0x4e, 0x35, 0xbd, 0x91, 0x17, 0xa5, 0x3b, 0xeb, 0xd5, 0x2f, 0xbd,
  0x35, 0x0d, 0x34, 0xbe, 0x55, 0x34, 0x78, 0x3d, 0xf7, 0xb0, 0xbc, 0x3d,
  0x3f, 0xb1, 0x74, 0xbe, 0xaf, 0xda, 0x14, 0x3d, 0xac, 0xcf, 0x55, 0x3d,
  0xf3, 0xb3, 0x81, 0xbe, 0x81, 0x53, 0xf7, 0xba, 0x5f, 0x58, 0xa7, 0xbd,
  0x09, 0xcf, 0x92, 0xbd, 0xdd, 0xa5, 0x09, 0xbe, 0x3b, 0x2e, 0x7c, 0x3b,
  0xe6, 0xa0, 0x94, 0xbe, 0x18, 0x43, 0x59, 0xbe, 0x26, 0x63, 0x90, 0xbe,
  0x44, 0x14, 0xeb, 0x3d, 0x3a, 0xab, 0x68, 0xbe, 0xe9, 0x70, 0x1b, 0xba,
  0x2c, 0x00, 0x53, 0xbe, 0x78, 0x36, 0x3d, 0xbe, 0x44, 0xe2, 0xab, 0xbd,
  0x69, 0xe3, 0x6a, 0xbc, 0xbd, 0xc8, 0x80, 0xbe, 0x86, 0x71, 0xcb, 0xbb,
  0x83, 0x52, 0x3b, 0x3e, 0x58, 0x45, 0xc7, 0xbd, 0xd6, 0x4c, 0x2d, 0xbd,
  0x18, 0x2e, 0x32, 0xbe, 0xb2, 0xa0, 0x00, 0x3e, 0x18, 0x37, 0xad, 0x3d,
  0x2f, 0x22, 0x85, 0xbe, 0xd3, 0x75, 0xc2, 0xbd, 0xab, 0xe1, 0x2a, 0x3d,
  0x7b, 0x1e, 0x2b, 0x3e, 0xe9, 0x1a, 0x4b, 0xbd, 0x9f, 0x93, 0x08, 0xbd,
  0x4d, 0xdd, 0x0e, 0x3e, 0xfd, 0x39, 0xe6, 0xbd, 0xae, 0xb5, 0x3b, 0x3d,
  0xc3, 0x71, 0x04, 0x3e, 0x1c, 0x89, 0x8a, 0xbd, 0xc8, 0xea, 0x01, 0xbe,
  0x76, 0x80, 0x02, 0x3d, 0x95, 0x71, 0xa4, 0x3d, 0xc2, 0xca, 0x2c, 0xbe,
  0x9b, 0x5a, 0xbd, 0xbd, 0x0b, 0xfe, 0xce, 0xbd, 0x01, 0x58, 0xc4, 0x3d,
  0x96, 0xa5, 0x4e, 0xbd, 0x74, 0x2a, 0x87, 0xbc, 0x41, 0xf7, 0x28, 0xbd,
  0x82, 0x66, 0xda, 0x3a, 0x33, 0x64, 0x7d, 0x3c, 0xec, 0xfe, 0xdb, 0x3d,
  0x43, 0xcd, 0x06, 0xbe, 0x72, 0x11, 0x89, 0xbd, 0xe3, 0xfd, 0x3b, 0x3d,
  0x4e, 0xcd, 0xd5, 0xbd, 0x3c, 0x23, 0x7c, 0xbc, 0x53, 0x88, 0x0f, 0x3e,
  0x9c, 0xef, 0x90, 0xbd, 0x38, 0x1a, 0xd1, 0xbd, 0x59, 0xe9, 0x2a, 0xbd,
  0x8a, 0x36, 0x1d, 0xbe, 0x30, 0x52, 0xe4, 0xbd, 0x25, 0xc4, 0x28, 0xbe,
  0x7c, 0xb2, 0x77, 0xbe, 0x70, 0xbe, 0x48, 0xbd, 0x86, 0x7f, 0x40, 0x3e,
  0xc0, 0x3a, 0x8f, 0xbd, 0x28, 0x2b, 0x18, 0xbd, 0xe9, 0xef, 0x55, 0xbe,
  0xc9, 0x07, 0xdd, 0xbd, 0xd7, 0xd8, 0x85, 0xbb, 0x99, 0xed, 0x1e, 0xbe,
  0xaf, 0x79, 0xe0, 0x3d, 0x0d, 0xe9, 0x43, 0x3d, 0xd1, 0xd3, 0x4b, 0xbe,
  0xcb, 0xff, 0x7d, 0xbe, 0x76, 0x23, 0x85, 0xbe, 0x84, 0x07, 0xcf, 0x3d,
  0x34, 0x6c, 0x4b, 0xbe, 0x01, 0x58, 0xbe, 0xbd, 0xa4, 0x3d, 0x4a, 0xbe,
  0xa5, 0x2b, 0x51, 0x3d, 0xd4, 0xaf, 0x0a, 0x3e, 0x44, 0x6e, 0x41, 0x3d,
  0x1e, 0x80, 0xfa, 0xbc, 0xb4, 0xc2, 0x15, 0xbe, 0x88, 0xa2, 0xc0, 0x3c,
  0x73, 0xd5, 0x86, 0xbd, 0x59, 0x4e, 0x9f, 0x3e, 0xff, 0x1c, 0x1a, 0xbe,
  0x55, 0xcc, 0x1e, 0x3d, 0xa3, 0xb6, 0x9f, 0xbe, 0x35, 0x19, 0x50, 0xbd,
  0xeb, 0x81, 0xe7, 0xbd, 0xe3, 0x9e, 0x3d, 0x3e, 0x77, 0x8c, 0x14, 0xbe,
  0x02, 0xca, 0xb4, 0x3e, 0x9a, 0xea, 0x46, 0xbe, 0x36, 0x52, 0xe4, 0x3c,
  0x6a, 0xdf, 0x43, 0x3d, 0xc0, 0xd6, 0x80, 0x3e, 0x77, 0x4d, 0x01, 0xbf,
  0xbc, 0xa2, 0xef, 0xbd, 0x4c, 0xd9, 0xf5, 0xbe, 0xb1, 0xd1, 0x05, 0xbe,
  0xae, 0xfe, 0x38, 0x3e, 0x30, 0x86, 0xa4, 0x3e, 0x88, 0xbe, 0xac, 0xbc,
  0x38, 0xb0, 0x95, 0x3e, 0xf0, 0x71, 0xa4, 0xbe, 0x40, 0xb9, 0x20, 0xbd,
  0x37, 0x2f, 0xee, 0x3d, 0x0f, 0xab, 0xab, 0x3e, 0x4f, 0xf6, 0x04, 0xbe,
  0xc4, 0x2c, 0xab, 0xbe, 0x51, 0x19, 0xcc, 0x3d, 0x23, 0x29, 0x01, 0xbe,
  0xad, 0x6a, 0x0e, 0x3e, 0x15, 0x61, 0x62, 0xbc, 0xba, 0xb5, 0x35, 0xbe,
  0xef, 0xc2, 0x90, 0x3b, 0xfc, 0x7d, 0x48, 0xbe, 0x92, 0x8a, 0x33, 0x3e,
  0x81, 0x2c, 0x4f, 0xbd, 0xd0, 0xe6, 0x41, 0xbe, 0x27, 0xa3, 0x9f, 0xbe,
  0xad, 0x24, 0x16, 0xbf, 0x94, 0xab, 0xbd, 0xbe, 0xae, 0x45, 0x8a, 0xbe,
  0xbe, 0x69, 0x4d, 0xbe, 0xbd, 0x01, 0x53, 0xbe, 0xc6, 0xfa, 0x0f, 0x3e,
  0xf1, 0xcd, 0x3f, 0xbd, 0x56, 0xd4, 0x09, 0x3f, 0x57, 0xf4, 0x15, 0xbe,
  0x96, 0x19, 0xa3, 0xbe, 0xed, 0x4b, 0x19, 0xbd, 0xdf, 0xff, 0xd4, 0xbe,
  0x21, 0x7e, 0x1b, 0xbe, 0x24, 0x95, 0x47, 0xbc, 0x05, 0xf0, 0x66, 0xbd,
  0x31, 0x76, 0xbc, 0xbc, 0x5a, 0x10, 0x3c, 0xbf, 0x0c, 0xf1, 0xf4, 0xbe,
  0x99, 0xa4, 0x09, 0xbf, 0xff, 0xd2, 0x9c, 0xbd, 0x64, 0x6f, 0x1f, 0x3e,
  0x3e, 0xe3, 0x06, 0x3e, 0x20, 0x5a, 0xd5, 0xbd, 0x6a, 0xfa, 0x09, 0xbe,
  0x05, 0x85, 0x84, 0xbe, 0xb1, 0xa6, 0x97, 0xbe, 0x13, 0x49, 0x70, 0x3d,
  0x36, 0x7d, 0x07, 0xbf, 0xc0, 0x58, 0x2b, 0xbf, 0x06, 0xf9, 0x1c, 0xbd,
  0x78, 0x1f, 0xa1, 0xbe, 0x18, 0x1d, 0x2a, 0xbd, 0x0e, 0xb3, 0x2f, 0x3d,
  0x3d, 0x97, 0xaf, 0xbd, 0xb8, 0xd6, 0xa3, 0x3e, 0x9c, 0xb7, 0xc9, 0xbd,
  0xab, 0x01, 0x7e, 0x3e, 0x00, 0x00, 0x0f, 0xbe, 0x7e, 0x94, 0x05, 0xbd,
  0xfa, 0x01, 0x9d, 0x3d, 0x4d, 0xa1, 0xaf, 0xbe, 0x0c, 0xb7, 0x20, 0xbe,
  0x26, 0xd0, 0x06, 0x3e, 0x45, 0x74, 0xa8, 0xbd, 0x61, 0xc9, 0x03, 0xbe,
  0xe3, 0x72, 0x0d, 0xbd, 0x2a, 0xb6, 0x15, 0x3e, 0x3f, 0x6b, 0xea, 0xbd,
  0x58, 0x44, 0x8b, 0x3d, 0x50, 0x8f, 0x89, 0xbd, 0xe4, 0xd5, 0x28, 0x3f,
  0xb3, 0x5b, 0x95, 0xbb, 0xe4, 0x56, 0x88, 0x3d, 0x84, 0x79, 0xb5, 0xbe,
  0x9b, 0xfb, 0x50, 0x3c, 0xf9, 0xa8, 0x9e, 0xbe, 0x21, 0x41, 0x34, 0xbd,
  0x94, 0x38, 0x8b, 0xbe, 0x5f, 0x5e, 0x80, 0xbd, 0x24, 0x32, 0x92, 0x3d,
  0x15, 0x8e, 0x7f, 0x3e, 0xd4, 0x02, 0xc1, 0xb9, 0xd1, 0xb8, 0x9d, 0x3e,
  0xad, 0xa6, 0x4c, 0xbe, 0x24, 0x17, 0x32, 0xbd, 0xa7, 0x8a, 0x81, 0x39,
  0xa9, 0xc3, 0xd8, 0x3c, 0x45, 0x54, 0x19, 0xbd, 0x09, 0x6e, 0x49, 0xbb,
  0x43, 0x63, 0xdf, 0xbd, 0xc9, 0x3f, 0x97, 0xbd, 0x42, 0xaf, 0xb6, 0xbd,
  0x96, 0x5a, 0x35, 0xbd, 0xc8, 0x10, 0xe0, 0xbd, 0xf2, 0xb1, 0x28, 0xbe,
  0xa5, 0xaf, 0xe9, 0xbc, 0x49, 0xfa, 0x1c, 0x3e, 0x6e, 0x96, 0x8b, 0xbd,
  0x42, 0xdd, 0xec, 0xbb, 0xc9, 0x91, 0x9d, 0x3d, 0xc1, 0xef, 0xf3, 0x3b,
  0x2e, 0xd9, 0x58, 0x3d, 0xaa, 0x85, 0x4f, 0x3e, 0xa2, 0xf0, 0x80, 0xbe,
  0xd5, 0xa3, 0xfb, 0x3d, 0x10, 0x63, 0x9e, 0xbd, 0x45, 0x9e, 0x4f, 0x3e,
  0x04, 0x4e, 0xe2, 0xbd, 0xdb, 0x74, 0xa4, 0x3d, 0xed, 0x41, 0x0e, 0xbe,
  0xae, 0xc6, 0x4e, 0xbe, 0x74, 0x8a, 0x9b, 0x3e, 0x2d, 0x66, 0x07, 0x3e,
  0xf9, 0x62, 0x8a, 0xbc, 0xfa, 0x34, 0x9c, 0x3d, 0x72, 0x0a, 0x85, 0xbd,
  0x24, 0xa6, 0xc1, 0x3b, 0x85, 0x3e, 0xb1, 0xbd, 0x6a, 0xf8, 0xb3, 0x3e,
  0xc5, 0x06, 0xbd, 0xbd, 0xfb, 0xc3, 0x65, 0xbe, 0xfc, 0x5c, 0x1e, 0x3d,
  0x49, 0x9c, 0x59, 0xbd, 0x85, 0x25, 0x83, 0xbd, 0x7f, 0x18, 0x51, 0x3d,
  0xb7, 0xf0, 0x5f, 0x3d, 0xf5, 0x34, 0x77, 0xbe, 0xbf, 0xc2, 0x05, 0x3d,
  0x09, 0x55, 0x21, 0x3e, 0xa3, 0x5a, 0x91, 0xbc, 0x4d, 0x48, 0x99, 0xbd,
  0x0c, 0x48, 0x34, 0xbd, 0xc1, 0x1b, 0x02, 0xbf, 0x1f, 0x34, 0x91, 0xbe,
  0xbb, 0x9d, 0x52, 0xbe, 0xbb, 0x2d, 0x0c, 0xbd, 0xe8, 0xf9, 0xa3, 0xbe,
  0xad, 0x2f, 0xea, 0x3c, 0x13, 0x1a, 0xb5, 0xbd, 0xc2, 0x6e, 0x0f, 0xbd,
  0x56, 0xa4, 0xec, 0xbe, 0x01, 0x18, 0x03, 0x3e, 0xea, 0x35, 0x52, 0xbe,
  0x3b, 0xfc, 0x0a, 0xbe, 0x68, 0xf7, 0xb1, 0x3d, 0x1f, 0x29, 0xa7, 0xbc,
  0x48, 0xbc, 0x94, 0xbe, 0x42, 0x81, 0x69, 0xbd, 0x83, 0x06, 0xf9, 0xbe,
  0x22, 0x4c, 0xd2, 0xbe, 0x87, 0x64, 0xf6, 0xbe, 0x86, 0xdd, 0x74, 0x3b,
  0xe6, 0x36, 0x81, 0xbc, 0xc2, 0x9b, 0x8b, 0x3c, 0xd4, 0x89, 0xfd, 0xbd,
  0xc5, 0xbb, 0x57, 0xbe, 0xb3, 0xd1, 0x0a, 0xbf, 0x20, 0x1b, 0x8d, 0xbe,
  0x98, 0xa1, 0x32, 0xbe, 0x83, 0xf0, 0x9c, 0xbe, 0x3a, 0x47, 0x61, 0xbe,
  0xd7, 0x71, 0x13, 0xbd, 0x51, 0x91, 0xd0, 0xbe, 0xb9, 0x7c, 0x0e, 0xbd,
  0x82, 0xde, 0xe0, 0xbd, 0x6a, 0x13, 0x15, 0x3d, 0x0a, 0x7a, 0x3e, 0x3d,
  0x02, 0x9e, 0x26, 0x3d, 0xec, 0xa9, 0x33, 0x3e, 0x9f, 0xe1, 0x38, 0xbe,
  0x78, 0x08, 0xd3, 0xbd, 0xce, 0x7e, 0x2f, 0x3d, 0xeb, 0x01, 0xdc, 0xbe,
  0xd7, 0x56, 0x2a, 0xbe, 0x55, 0xe3, 0x6c, 0x3d, 0x33, 0x84, 0xb0, 0xbd,
  0xab, 0xc9, 0xad, 0xbe, 0x0b, 0x65, 0x66, 0xbc, 0x24, 0x91, 0x3a, 0x3e,
  0x32, 0x7f, 0x8c, 0xbb, 0x24, 0x5e, 0xf5, 0xbb, 0xfd, 0x49, 0x07, 0xbd,
  0xf3, 0xe3, 0xc6, 0x3e, 0x38, 0x23, 0x63, 0xbd, 0x1b, 0x17, 0xb7, 0x3d,
  0x20, 0x27, 0xa4, 0xbe, 0x85, 0x2c, 0xff, 0xbc, 0xe4, 0x99, 0xf5, 0x3b,
  0x78, 0x51, 0x08, 0x3e, 0x0f, 0x8d, 0xa4, 0x3d, 0x0a, 0xfe, 0x2e, 0xbe,
  0xa0, 0xa9, 0xf8, 0x3d, 0xcb, 0x49, 0x05, 0x3e, 0x08, 0x30, 0xd9, 0xbc,
  0x8d, 0x06, 0x7d, 0x3e, 0x91, 0xe1, 0x94, 0xbc, 0x54, 0x29, 0x09, 0x3e,
  0xf3, 0x59, 0xb2, 0x3c, 0xc2, 0x65, 0xb8, 0x3b, 0x11, 0x75, 0xc3, 0x3c,
  0x04, 0x97, 0x1c, 0x3e, 0xf0, 0xe3, 0xf5, 0xbd, 0x90, 0xd7, 0xa0, 0x3d,
  0x88, 0x0d, 0x83, 0xbd, 0x0f, 0xc2, 0xaa, 0x3c, 0xcd, 0x09, 0x86, 0xbc,
  0x79, 0x53, 0x47, 0xbe, 0x71, 0x01, 0x8a, 0x3d, 0x2b, 0x17, 0x9c, 0x3d,
  0x40, 0x70, 0x60, 0xbd, 0xd7, 0x1e, 0x58, 0xbc, 0x41, 0x33, 0x7f, 0x3c,
  0x66, 0xfd, 0xff, 0xff, 0x10, 0x00, 0x00, 0x00, 0x07, 0x00, 0x00, 0x00,
  0x14, 0x00, 0x00, 0x00, 0x2c, 0x00, 0x00, 0x00, 0x02, 0x00, 0x00, 0x00,
  0x10, 0x00, 0x00, 0x00, 0x70, 0x00, 0x00, 0x00, 0x17, 0x00, 0x00, 0x00,
  0x73, 0x65, 0x71, 0x75, 0x65, 0x6e, 0x74, 0x69, 0x61, 0x6c, 0x2f, 0x64,
  0x65, 0x6e, 0x73, 0x65, 0x2f, 0x4d, 0x61, 0x74, 0x4d, 0x75, 0x6c, 0x00,
  0xd0, 0xfc, 0xff, 0xff, 0xda, 0xfd, 0xff, 0xff, 0x04, 0x00, 0x00, 0x00,
  0x08, 0x00, 0x00, 0x00, 0xff, 0xff, 0xff, 0xff, 0x70, 0x00, 0x00, 0x00,
  0x00, 0x00, 0x0e, 0x00, 0x18, 0x00, 0x08, 0x00, 0x07, 0x00, 0x0c, 0x00,
  0x10, 0x00, 0x14, 0x00, 0x0e, 0x00, 0x00, 0x00, 0x00, 0x00, 0x00, 0x02,
  0x10, 0x00, 0x00, 0x00, 0x06, 0x00, 0x00, 0x00, 0x10, 0x00, 0x00, 0x00,
  0x2c, 0x00, 0x00, 0x00, 0x01, 0x00, 0x00, 0x00, 0x02, 0x00, 0x00, 0x00,
  0x18, 0x00, 0x00, 0x00, 0x73, 0x65, 0x71, 0x75, 0x65, 0x6e, 0x74, 0x69,
  0x61, 0x6c, 0x2f, 0x66, 0x6c, 0x61, 0x74, 0x74, 0x65, 0x6e, 0x2f, 0x43,
  0x6f, 0x6e, 0x73, 0x74, 0x00, 0x00, 0x00, 0x00, 0x38, 0xfd, 0xff, 0xff,
  0x42, 0xfe, 0xff, 0xff, 0x04, 0x00, 0x00, 0x00, 0x0c, 0x00, 0x00, 0x00,
  0x37, 0x38, 0xcb, 0xbd, 0x46, 0x2d, 0x2a, 0xc0, 0x05, 0xde, 0xb4, 0x3f,
  0x26, 0xfe, 0xff, 0xff, 0x10, 0x00, 0x00, 0x00, 0x05, 0x00, 0x00, 0x00,
  0x10, 0x00, 0x00, 0x00, 0x44, 0x00, 0x00, 0x00, 0x01, 0x00, 0x00, 0x00,
  0x03, 0x00, 0x00, 0x00, 0x32, 0x00, 0x00, 0x00, 0x73, 0x65, 0x71, 0x75,
  0x65, 0x6e, 0x74, 0x69, 0x61, 0x6c, 0x2f, 0x64, 0x65, 0x6e, 0x73, 0x65,
  0x5f, 0x31, 0x2f, 0x42, 0x69, 0x61, 0x73, 0x41, 0x64, 0x64, 0x2f, 0x52,
  0x65, 0x61, 0x64, 0x56, 0x61, 0x72, 0x69, 0x61, 0x62, 0x6c, 0x65, 0x4f,
  0x70, 0x2f, 0x72, 0x65, 0x73, 0x6f, 0x75, 0x72, 0x63, 0x65, 0x00, 0x00,
  0xa8, 0xfd, 0xff, 0xff, 0xb2, 0xfe, 0xff, 0xff, 0x04, 0x00, 0x00, 0x00,
  0x40, 0x00, 0x00, 0x00, 0x71, 0x76, 0xc9, 0x3f, 0x2b, 0xef, 0xb9, 0xbf,
  0x78, 0xaf, 0xef, 0x3f, 0xc6, 0x77, 0x30, 0x3d, 0x58, 0x2a, 0x51, 0xbf,
  0x49, 0xdd, 0x96, 0xbe, 0xc4, 0x2a, 0x9c, 0xbf, 0xec, 0x5e, 0x11, 0xbd,
  0x15, 0x44, 0x3e, 0xbf, 0x0d, 0xfa, 0x5f, 0x3f, 0xcd, 0x65, 0xdb, 0x3f,
  0x3a, 0xd1, 0xd5, 0xbe, 0xbd, 0x26, 0x8b, 0xbe, 0x46, 0x8b, 0x1a, 0xbe,
  0xce, 0x0c, 0xa4, 0xbf, 0x38, 0xc4, 0x12, 0xc0, 0xca, 0xfe, 0xff, 0xff,
  0x10, 0x00, 0x00, 0x00, 0x04, 0x00, 0x00, 0x00, 0x10, 0x00, 0x00, 0x00,
  0x44, 0x00, 0x00, 0x00, 0x01, 0x00, 0x00, 0x00, 0x10, 0x00, 0x00, 0x00,
  0x30, 0x00, 0x00, 0x00, 0x73, 0x65, 0x71, 0x75, 0x65, 0x6e, 0x74, 0x69,
  0x61, 0x6c, 0x2f, 0x64, 0x65, 0x6e, 0x73, 0x65, 0x2f, 0x42, 0x69, 0x61,
  0x73, 0x41, 0x64, 0x64, 0x2f, 0x52, 0x65, 0x61, 0x64, 0x56, 0x61, 0x72,
  0x69, 0x61, 0x62, 0x6c, 0x65, 0x4f, 0x70, 0x2f, 0x72, 0x65, 0x73, 0x6f,
  0x75, 0x72, 0x63, 0x65, 0x00, 0x00, 0x00, 0x00, 0x4c, 0xfe, 0xff, 0xff,
  0x56, 0xff, 0xff, 0xff, 0x04, 0x00, 0x00, 0x00, 0x40, 0x00, 0x00, 0x00,
  0x15, 0xcc, 0xaf, 0xbe, 0xcf, 0x3e, 0x60, 0x40, 0xca, 0x8d, 0x91, 0xbf,
  0xfe, 0xba, 0xd3, 0x3b, 0x8c, 0xf3, 0xa4, 0xbf, 0x9a, 0x5e, 0x4c, 0xbb,
  0x70, 0x23, 0x95, 0xbc, 0xd8, 0x8a, 0xa0, 0xbf, 0x78, 0x77, 0x1b, 0xc0,
  0x65, 0xf3, 0xcc, 0xbf, 0xdf, 0xef, 0x33, 0xbc, 0x72, 0x83, 0x4a, 0xbf,
  0xfb, 0xfc, 0x09, 0xc0, 0xb8, 0x49, 0x98, 0x3b, 0xd5, 0x26, 0x01, 0xbf,
  0x4b, 0xec, 0xa3, 0x3d, 0x6e, 0xff, 0xff, 0xff, 0x10, 0x00, 0x00, 0x00,
  0x03, 0x00, 0x00, 0x00, 0x10, 0x00, 0x00, 0x00, 0x48, 0x00, 0x00, 0x00,
  0x01, 0x00, 0x00, 0x00, 0x10, 0x00, 0x00, 0x00, 0x33, 0x00, 0x00, 0x00,
  0x73, 0x65, 0x71, 0x75, 0x65, 0x6e, 0x74, 0x69, 0x61, 0x6c, 0x2f, 0x63,
  0x6f, 0x6e, 0x76, 0x32, 0x64, 0x5f, 0x31, 0x2f, 0x42, 0x69, 0x61, 0x73,
  0x41, 0x64, 0x64, 0x2f, 0x52, 0x65, 0x61, 0x64, 0x56, 0x61, 0x72, 0x69,
  0x61, 0x62, 0x6c, 0x65, 0x4f, 0x70, 0x2f, 0x72, 0x65, 0x73, 0x6f, 0x75,
  0x72, 0x63, 0x65, 0x00, 0x04, 0x00, 0x06, 0x00, 0x04, 0x00, 0x00, 0x00,
  0x00, 0x00, 0x06, 0x00, 0x08, 0x00, 0x04, 0x00, 0x06, 0x00, 0x00, 0x00,
  0x04, 0x00, 0x00, 0x00, 0x20, 0x00, 0x00, 0x00, 0xfc, 0xce, 0x3a, 0xc0,
  0x43, 0x11, 0x2b, 0xc0, 0x47, 0x86, 0x61, 0xbf, 0x52, 0x31, 0x84, 0xbf,
  0x96, 0x74, 0x24, 0xc0, 0x73, 0xda, 0xd6, 0xbe, 0x1a, 0x3e, 0x3c, 0xbf,
  0xfb, 0xa3, 0x0a, 0xc0, 0x00, 0x00, 0x0e, 0x00, 0x14, 0x00, 0x04, 0x00,
  0x00, 0x00, 0x08, 0x00, 0x0c, 0x00, 0x10, 0x00, 0x0e, 0x00, 0x00, 0x00,
  0x10, 0x00, 0x00, 0x00, 0x02, 0x00, 0x00, 0x00, 0x10, 0x00, 0x00, 0x00,
  0x44, 0x00, 0x00, 0x00, 0x01, 0x00, 0x00, 0x00, 0x08, 0x00, 0x00, 0x00,
  0x31, 0x00, 0x00, 0x00, 0x73, 0x65, 0x71, 0x75, 0x65, 0x6e, 0x74, 0x69,
  0x61, 0x6c, 0x2f, 0x63, 0x6f, 0x6e, 0x76, 0x32, 0x64, 0x2f, 0x42, 0x69,
  0x61, 0x73, 0x41, 0x64, 0x64, 0x2f, 0x52, 0x65, 0x61, 0x64, 0x56, 0x61,
  0x72, 0x69, 0x61, 0x62, 0x6c, 0x65, 0x4f, 0x70, 0x2f, 0x72, 0x65, 0x73,
  0x6f, 0x75, 0x72, 0x63, 0x65, 0x00, 0x00, 0x00, 0x90, 0xff, 0xff, 0xff,
  0x14, 0x00, 0x18, 0x00, 0x04, 0x00, 0x00, 0x00, 0x08, 0x00, 0x0c, 0x00,
  0x10, 0x00, 0x00, 0x00, 0x00, 0x00, 0x14, 0x00, 0x14, 0x00, 0x00, 0x00,
  0x14, 0x00, 0x00, 0x00, 0x01, 0x00, 0x00, 0x00, 0x20, 0x00, 0x00, 0x00,
  0x44, 0x00, 0x00, 0x00, 0x2c, 0x00, 0x00, 0x00, 0x04, 0x00, 0x00, 0x00,
  0x01, 0x00, 0x00, 0x00, 0x40, 0x00, 0x00, 0x00, 0x03, 0x00, 0x00, 0x00,
  0x01, 0x00, 0x00, 0x00, 0x0c, 0x00, 0x00, 0x00, 0x63, 0x6f, 0x6e, 0x76,
  0x32, 0x64, 0x5f, 0x69, 0x6e, 0x70, 0x75, 0x74, 0x00, 0x00, 0x00, 0x00,
  0x04, 0x00, 0x00, 0x00, 0xff, 0xff, 0xff, 0xff, 0x40, 0x00, 0x00, 0x00,
  0x03, 0x00, 0x00, 0x00, 0x01, 0x00, 0x00, 0x00, 0xfc, 0xff, 0xff, 0xff,
  0x04, 0x00, 0x04, 0x00, 0x04, 0x00, 0x00, 0x00
};

unsigned int model_tflite_len = 13052;;// Fill the int in `src/model.cc` here